<unk>	0
<s>	0
</s>	0
<pad>	0
<INST>	0
<INPUT>	0
<RESPONSE>	0
<SEP>	0
<SYSTEM>	0
<USER>	0
<ASSISTANT>	0
<THOUGHT>	0
<ACTION>	0
<OBSERVATION>	0
<0x00>	0
<0x01>	0
<0x02>	0
<0x03>	0
<0x04>	0
<0x05>	0
<0x06>	0
<0x07>	0
<0x08>	0
<0x09>	0
<0x0A>	0
<0x0B>	0
<0x0C>	0
<0x0D>	0
<0x0E>	0
<0x0F>	0
<0x10>	0
<0x11>	0
<0x12>	0
<0x13>	0
<0x14>	0
<0x15>	0
<0x16>	0
<0x17>	0
<0x18>	0
<0x19>	0
<0x1A>	0
<0x1B>	0
<0x1C>	0
<0x1D>	0
<0x1E>	0
<0x1F>	0
<0x20>	0
<0x21>	0
<0x22>	0
<0x23>	0
<0x24>	0
<0x25>	0
<0x26>	0
<0x27>	0
<0x28>	0
<0x29>	0
<0x2A>	0
<0x2B>	0
<0x2C>	0
<0x2D>	0
<0x2E>	0
<0x2F>	0
<0x30>	0
<0x31>	0
<0x32>	0
<0x33>	0
<0x34>	0
<0x35>	0
<0x36>	0
<0x37>	0
<0x38>	0
<0x39>	0
<0x3A>	0
<0x3B>	0
<0x3C>	0
<0x3D>	0
<0x3E>	0
<0x3F>	0
<0x40>	0
<0x41>	0
<0x42>	0
<0x43>	0
<0x44>	0
<0x45>	0
<0x46>	0
<0x47>	0
<0x48>	0
<0x49>	0
<0x4A>	0
<0x4B>	0
<0x4C>	0
<0x4D>	0
<0x4E>	0
<0x4F>	0
<0x50>	0
<0x51>	0
<0x52>	0
<0x53>	0
<0x54>	0
<0x55>	0
<0x56>	0
<0x57>	0
<0x58>	0
<0x59>	0
<0x5A>	0
<0x5B>	0
<0x5C>	0
<0x5D>	0
<0x5E>	0
<0x5F>	0
<0x60>	0
<0x61>	0
<0x62>	0
<0x63>	0
<0x64>	0
<0x65>	0
<0x66>	0
<0x67>	0
<0x68>	0
<0x69>	0
<0x6A>	0
<0x6B>	0
<0x6C>	0
<0x6D>	0
<0x6E>	0
<0x6F>	0
<0x70>	0
<0x71>	0
<0x72>	0
<0x73>	0
<0x74>	0
<0x75>	0
<0x76>	0
<0x77>	0
<0x78>	0
<0x79>	0
<0x7A>	0
<0x7B>	0
<0x7C>	0
<0x7D>	0
<0x7E>	0
<0x7F>	0
<0x80>	0
<0x81>	0
<0x82>	0
<0x83>	0
<0x84>	0
<0x85>	0
<0x86>	0
<0x87>	0
<0x88>	0
<0x89>	0
<0x8A>	0
<0x8B>	0
<0x8C>	0
<0x8D>	0
<0x8E>	0
<0x8F>	0
<0x90>	0
<0x91>	0
<0x92>	0
<0x93>	0
<0x94>	0
<0x95>	0
<0x96>	0
<0x97>	0
<0x98>	0
<0x99>	0
<0x9A>	0
<0x9B>	0
<0x9C>	0
<0x9D>	0
<0x9E>	0
<0x9F>	0
<0xA0>	0
<0xA1>	0
<0xA2>	0
<0xA3>	0
<0xA4>	0
<0xA5>	0
<0xA6>	0
<0xA7>	0
<0xA8>	0
<0xA9>	0
<0xAA>	0
<0xAB>	0
<0xAC>	0
<0xAD>	0
<0xAE>	0
<0xAF>	0
<0xB0>	0
<0xB1>	0
<0xB2>	0
<0xB3>	0
<0xB4>	0
<0xB5>	0
<0xB6>	0
<0xB7>	0
<0xB8>	0
<0xB9>	0
<0xBA>	0
<0xBB>	0
<0xBC>	0
<0xBD>	0
<0xBE>	0
<0xBF>	0
<0xC0>	0
<0xC1>	0
<0xC2>	0
<0xC3>	0
<0xC4>	0
<0xC5>	0
<0xC6>	0
<0xC7>	0
<0xC8>	0
<0xC9>	0
<0xCA>	0
<0xCB>	0
<0xCC>	0
<0xCD>	0
<0xCE>	0
<0xCF>	0
<0xD0>	0
<0xD1>	0
<0xD2>	0
<0xD3>	0
<0xD4>	0
<0xD5>	0
<0xD6>	0
<0xD7>	0
<0xD8>	0
<0xD9>	0
<0xDA>	0
<0xDB>	0
<0xDC>	0
<0xDD>	0
<0xDE>	0
<0xDF>	0
<0xE0>	0
<0xE1>	0
<0xE2>	0
<0xE3>	0
<0xE4>	0
<0xE5>	0
<0xE6>	0
<0xE7>	0
<0xE8>	0
<0xE9>	0
<0xEA>	0
<0xEB>	0
<0xEC>	0
<0xED>	0
<0xEE>	0
<0xEF>	0
<0xF0>	0
<0xF1>	0
<0xF2>	0
<0xF3>	0
<0xF4>	0
<0xF5>	0
<0xF6>	0
<0xF7>	0
<0xF8>	0
<0xF9>	0
<0xFA>	0
<0xFB>	0
<0xFC>	0
<0xFD>	0
<0xFE>	0
<0xFF>	0
,	-3.30184
.	-3.47292
▁the	-3.47734
s	-3.87904
▁of	-4.06246
▁and	-4.0866
▁to	-4.26799
▁	-4.42964
▁a	-4.47017
-	-4.62059
▁in	-4.65848
:	-4.72059
_	-4.94851
▁for	-5.20271
▁that	-5.27228
▁was	-5.44533
▁"	-5.47527
▁with	-5.51978
'	-5.58609
▁is	-5.59962
/	-5.61657
▁The	-5.70175
’	-5.71796
▁on	-5.72878
▁as	-5.76111
d	-5.85765
▁it	-5.86685
▁I	-5.91484
▁his	-5.92212
▁had	-5.92246
e	-5.96768
▁site	-5.96915
",	-5.97476
▁he	-6.0001
▁be	-6.00085
":"	-6.0021
▁from	-6.01421
ing	-6.01956
▁(	-6.02489
▁by	-6.04056
t	-6.04483
ed	-6.07777
▁“	-6.09984
)	-6.13769
▁you	-6.1622
▁or	-6.19938
a	-6.20235
;	-6.25413
▁not	-6.2711
n	-6.2763
▁at	-6.27784
▁books	-6.31461
▁an	-6.32003
▁were	-6.33991
▁would	-6.35138
▁their	-6.365
","	-6.38465
1	-6.46354
▁have	-6.47113
9	-6.47917
▁+++$+++	-6.48474
▁this	-6.48657
8	-6.4911
▁are	-6.50128
3	-6.54523
0	-6.55049
2	-6.55351
▁can	-6.55448
?	-6.55566
▁they	-6.56511
c	-6.59814
b	-6.60017
▁memory	-6.60064
▁section	-6.61239
(	-6.61701
▁de	-6.65511
5	-6.66347
▁but	-6.67506
▁which	-6.68193
▁A	-6.70033
memories	-6.70809
ly	-6.70989
i	-6.71728
f	-6.72615
4	-6.73475
en	-6.74056
y	-6.74953
▁analysis	-6.77143
▁all	-6.77664
▁In	-6.77736
▁=	-6.8281
er	-6.83517
▁one	-6.83556
6	-6.84722
▁more	-6.86549
▁who	-6.87604
m	-6.8958
▁your	-6.90038
7	-6.93233
g	-6.94203
▁|	-6.94217
▁been	-6.96984
cleaned	-6.97217
"	-6.99207
▁her	-6.99457
r	-7.00578
o	-7.02148
T	-7.02542
://	-7.03448
▁we	-7.04595
L	-7.04713
▁him	-7.04886
▁He	-7.05041
▁them	-7.05422
.”	-7.05462
—	-7.0689
▁so	-7.07643
I	-7.09275
▁into	-7.10784
A	-7.1179
▁It	-7.1226
S	-7.1243
▁could	-7.12825
https	-7.13164
es	-7.1325
org	-7.13737
▁no	-7.14086
▁about	-7.142
▁up	-7.14555
▁if	-7.15
▁out	-7.15294
in	-7.1544
url	-7.16124
▁will	-7.16437
▁other	-7.16945
▁time	-7.17727
▁*	-7.17864
▁context	-7.1932
▁its	-7.22493
text	-7.23272
▁me	-7.24062
▁also	-7.2431
P	-7.24639
▁This	-7.25724
▁when	-7.26022
...	-7.28048
re	-7.28066
的	-7.28167
C	-7.28403
▁`	-7.2987
▁temporal	-7.30211
▁my	-7.30211
al	-7.31343
▁'	-7.31379
▁there	-7.32351
wikipedia	-7.32836
▁content	-7.33236
▁than	-7.34043
。	-7.34121
▁has	-7.34887
▁do	-7.34922
`	-7.35725
▁new	-7.36291
▁L	-7.36921
▁-	-7.3713
u	-7.37135
▁‘	-7.37939
wiki	-7.38387
▁semantic	-7.39581
▁importance	-7.39651
▁what	-7.40409
▁such	-7.40964
▁over	-7.41861
▁some	-7.42177
▁signal	-7.42572
▁like	-7.4266
▁m	-7.43035
▁understanding	-7.44269
,”	-7.44803
\_	-7.44924
the	-7.46113
▁any	-7.46676
▁only	-7.47007
D	-7.47809
▁data	-7.48481
▁she	-7.48637
▁u	-7.49082
x	-7.49129
▁two	-7.50218
▁Signal	-7.50366
▁{	-7.50994
j	-7.5164
+	-7.51775
▁gap	-7.52687
▁first	-7.53586
▁Analyze	-7.55378
type	-7.5584
▁textual	-7.56534
”	-7.5706
▁S	-7.57547
":	-7.58693
▁these	-7.59268
▁What	-7.59351
▁Missing	-7.60455
▁la	-7.60778
]	-7.60813
p	-7.60996
v	-7.61038
▁use	-7.61053
▁provide	-7.62118
!	-7.63824
▁said	-7.6455
▁how	-7.64642
▁But	-7.65385
▁most	-7.65538
Q	-7.65557
h	-7.65686
▁people	-7.65826
▁<	-7.67396
▁```	-7.67591
B	-7.67728
▁may	-7.67867
21	-7.68558
F	-7.68835
M	-7.69892
▁our	-7.70157
k	-7.70727
▁did	-7.70854
▁after	-7.71057
▁un	-7.71375
▁bibliographic	-7.71647
l	-7.71973
▁[	-7.71987
▁war	-7.72675
▁text	-7.72774
to	-7.72861
▁better	-7.73013
▁where	-7.74175
▁C	-7.74671
▁General	-7.75389
"},{"	-7.75636
▁1	-7.75752
20	-7.77009
),	-7.77529
▁should	-7.7755
▁make	-7.77744
▁schema	-7.77888
▁made	-7.77999
\	-7.7852
–	-7.78602
▁New	-7.78813
▁through	-7.78902
value	-7.79118
th	-7.80238
▁before	-7.80516
▁way	-7.8054
▁between	-7.81115
▁men	-7.81502
":[{"	-7.8186
▁well	-7.82031
▁many	-7.82077
▁then	-7.82152
01	-7.82585
▁As	-7.83368
▁1.	-7.83674
▁work	-7.83734
▁man	-7.83857
▁re	-7.84309
▁knowledge	-7.84369
▁now	-7.84384
▁p	-7.84481
▁B	-7.84816
▁main	-7.85271
▁even	-7.85374
▁back	-7.86092
▁They	-7.86545
▁}	-7.87844
、	-7.88809
K	-7.90938
▁#	-7.9099
▁own	-7.91138
or	-7.92514
▁just	-7.93017
▁see	-7.93738
AAAAAAAAAAAAAAA	-7.93964
▁en	-7.94043
▁each	-7.94266
▁years	-7.9429
▁used	-7.94292
▁E	-7.948
z	-7.95412
).	-7.96185
▁down	-7.96411
▁For	-7.96463
on	-7.9707
EBAQEBAQEBAQEBAQ	-7.97101
J	-7.97538
▁We	-7.97852
▁related	-7.98106
▁research	-7.98714
ll	-7.98998
ers	-7.99064
name	-7.99115
▁much	-7.99387
an	-7.99895
▁And	-8.00587
▁database	-8.0117
and	-8.01648
▁help	-8.01766
▁using	-8.02267
▁day	-8.03269
▁D	-8.03449
▁American	-8.03772
de	-8.03922
E	-8.04352
▁long	-8.04412
▁P	-8.04491
▁Knowledge	-8.04595
▁e	-8.04728
▁those	-8.04977
▁y	-8.05796
▁part	-8.05802
▁connections	-8.05921
▁world	-8.0611
=	-8.06216
和	-8.06844
▁topic	-8.0691
man	-8.07068
▁characters	-8.07299
▁2	-8.07359
▁being	-8.07433
>	-8.07921
▁life	-8.08075
▁You	-8.08313
▁under	-8.08438
▁emotional	-8.08496
▁M	-8.08652
▁patterns	-8.0874
▁while	-8.08842
▁2.	-8.09321
▁extract	-8.0947
▁processing	-8.09524
▁very	-8.09534
▁against	-8.09864
is	-8.09879
▁To	-8.113
▁get	-8.11852
id	-8.11955
▁might	-8.12976
auto	-8.13581
▁Identify	-8.13858
▁Content	-8.13909
▁same	-8.14301
▁know	-8.14541
▁set	-8.1489
▁both	-8.15022
The	-8.15299
▁us	-8.15368
▁need	-8.15397
▁If	-8.15616
memory	-8.15933
▁because	-8.16434
▁still	-8.16564
AAAA	-8.16895
▁great	-8.17314
▁good	-8.17365
▁Memory	-8.1774
▁indicators	-8.17917
▁Extract	-8.17957
▁historical	-8.18287
fr	-8.18416
of	-8.18569
▁York	-8.19303
us	-8.19359
▁example	-8.19629
ar	-8.19689
▁R	-8.1971
R	-8.20121
▁2025-08-	-8.20172
▁take	-8.2018
▁signals	-8.20314
w	-8.20357
▁3.	-8.21331
▁three	-8.21384
▁T	-8.21907
G	-8.22023
N	-8.22779
."	-8.22921
le	-8.23295
▁Cross	-8.23332
H	-8.24037
▁G	-8.24143
ve	-8.24348
▁3	-8.24584
able	-8.24958
Z	-8.25458
▁end	-8.25902
▁another	-8.26135
▁must	-8.26535
,"	-8.26625
▁Research	-8.26747
▁information	-8.26762
▁i	-8.27509
▁d	-8.27676
▁different	-8.27985
▁found	-8.28009
▁right	-8.28076
▁["	-8.28212
▁system	-8.28529
reference	-8.28627
▁state	-8.29296
▁enhance	-8.29395
▁When	-8.29711
▁F	-8.29852
▁return	-8.30156
▁off	-8.3054
/2	-8.30813
▁go	-8.31127
▁without	-8.31228
▁came	-8.31884
ity	-8.32308
▁never	-8.32317
▁que	-8.32392
VFJDAAABZAAAACh	-8.32551
▁publication	-8.32555
▁power	-8.32613
links	-8.33282
);	-8.33283
▁important	-8.34112
▁There	-8.34238
ation	-8.34255
▁et	-8.34478
▁too	-8.34723
ic	-8.34806
▁number	-8.34914
▁British	-8.35277
▁J	-8.35405
▁War	-8.35441
▁name	-8.35459
it	-8.35577
▁dates	-8.36021
▁here	-8.36252
▁come	-8.36431
▁code	-8.3653
▁during	-8.36703
▁little	-8.37934
▁later	-8.38145
▁On	-8.38331
▁public	-8.38627
▁few	-8.38636
▁himself	-8.38765
▁U	-8.39166
▁left	-8.39315
▁chronological	-8.39385
▁clues	-8.39466
▁place	-8.39521
▁Adding	-8.39589
▁c	-8.39789
▁past	-8.39976
▁Temporal	-8.40526
▁databases	-8.40768
▁4.	-8.4083
>:	-8.40885
ment	-8.41507
▁H	-8.41651
▁l	-8.42003
▁want	-8.42048
▁...	-8.43016
▁function	-8.43221
list	-8.43361
▁create	-8.43464
as	-8.4371
▁O	-8.44032
▁took	-8.44074
▁called	-8.44076
▁She	-8.44144
at	-8.44429
()	-8.45183
▁including	-8.45197
▁$	-8.45669
▁government	-8.45678
O	-8.45745
▁self	-8.45926
▁high	-8.46595
[	-8.46798
▁By	-8.47329
▁every	-8.47609
ness	-8.47609
▁last	-8.47996
W	-8.4818
▁Re	-8.48257
▁around	-8.48303
▁K	-8.48443
AAAAAAAAAAAAAA	-8.48785
▁se	-8.49076
▁+	-8.49348
▁order	-8.49682
▁John	-8.50108
ism	-8.50138
▁W	-8.50521
ist	-8.50814
▁model	-8.51145
-02	-8.5125
▁again	-8.51451
▁At	-8.51849
▁business	-8.51932
▁city	-8.51993
▁home	-8.5227
ton	-8.52318
▁Here	-8.52641
"}]},{"	-8.52987
X	-8.53269
▁political	-8.53325
st	-8.53512
▁old	-8.53523
com	-8.5369
▁best	-8.54586
▁//	-8.54701
▁N	-8.54723
el	-8.54941
/4	-8.55077
▁process	-8.5518
▁find	-8.55681
▁became	-8.56084
▁import	-8.56092
▁States	-8.56674
▁support	-8.57097
Y	-8.57856
▁con	-8.58144
ne	-8.58306
▁upon	-8.58432
ry	-8.5927
▁History	-8.59903
▁don	-8.59912
▁social	-8.60044
▁o	-8.60066
▁–	-8.60219
▁following	-8.60229
▁4	-8.60536
▁His	-8.60648
te	-8.60812
▁year	-8.60983
▁next	-8.61101
▁5	-8.6146
▁went	-8.6171
▁&	-8.61916
ir	-8.62105
▁French	-8.62239
▁far	-8.62323
▁think	-8.62324
ce	-8.62371
/8	-8.62438
▁United	-8.6258
▁within	-8.63409
▁hand	-8.6342
▁case	-8.63586
▁history	-8.64499
▁put	-8.64605
et	-8.64693
▁class	-8.64693
▁AI	-8.64724
▁So	-8.64731
▁days	-8.65098
section	-8.65192
▁No	-8.6521
▁file	-8.6536
no	-8.65469
▁told	-8.65483
▁often	-8.6573
▁country	-8.65758
▁line	-8.66069
▁specific	-8.66409
▁away	-8.6649
▁per	-8.66496
un	-8.6656
▁5.	-8.66638
V	-8.6667
by	-8.66681
▁thought	-8.66735
▁began	-8.66931
▁t	-8.67359
-03	-8.67377
é	-8.67466
▁small	-8.67715
▁le	-8.68284
YWVogAAAAAAAA	-8.684
tYAAQAAAADTL	-8.6845
os	-8.68755
▁large	-8.68763
▁German	-8.68986
▁company	-8.69045
▁One	-8.69052
00	-8.69132
ion	-8.69195
▁value	-8.69409
na	-8.69805
▁am	-8.69814
▁say	-8.70007
▁always	-8.70062
▁al	-8.70074
be	-8.70249
▁until	-8.70362
"]	-8.70374
AAAAAEAAA	-8.70577
VUwAAA	-8.70664
AMZW	-8.70683
▁b	-8.70768
▁That	-8.70883
▁el	-8.70885
▁let	-8.70907
▁early	-8.71026
▁point	-8.71373
▁wrote	-8.71396
▁water	-8.72057
ta	-8.72161
-01	-8.72246
▁among	-8.72338
▁family	-8.72438
▁give	-8.72618
▁user	-8.73049
▁based	-8.73264
("	-8.7328
ad	-8.7354
da	-8.73878
▁These	-8.74117
est	-8.74155
item	-8.74217
▁given	-8.74384
▁become	-8.7493
の	-8.7499
▁10	-8.75305
▁n	-8.75533
▁An	-8.75535
▁less	-8.75769
▁known	-8.75794
在	-8.76283
ch	-8.76724
me	-8.77075
ja	-8.77106
▁America	-8.77138
il	-8.7741
▁across	-8.77642
field	-8.77965
▁night	-8.78078
men	-8.78353
32	-8.78476
▁death	-8.78857
):	-8.78916
▁since	-8.791
▁des	-8.79327
▁military	-8.79387
▁once	-8.79465
']	-8.79491
▁going	-8.80334
▁---	-8.80609
▁saw	-8.80798
son	-8.8082
▁control	-8.80995
▁several	-8.81031
▁possible	-8.81191
▁**	-8.81201
▁ever	-8.81496
▁English	-8.81503
ia	-8.81551
▁change	-8.81662
▁side	-8.81793
▁course	-8.81934
▁four	-8.81947
▁army	-8.82122
▁V	-8.8215
▁second	-8.82153
▁human	-8.822
10	-8.82242
▁project	-8.82267
▁experience	-8.82318
▁group	-8.8256
▁general	-8.82586
▁got	-8.82801
ant	-8.82814
▁head	-8.82859
▁though	-8.82936
▁local	-8.83871
ian	-8.84059
age	-8.84118
▁After	-8.84219
▁themselves	-8.84405
▁key	-8.84495
▁making	-8.84579
U	-8.84635
ive	-8.8517
▁something	-8.85491
▁language	-8.8566
ca	-8.85748
▁sent	-8.85938
bot	-8.86063
▁young	-8.86313
▁book	-8.86675
을	-8.87014
▁real	-8.87221
▁knew	-8.87228
▁development	-8.8748
▁fact	-8.87834
▁land	-8.87873
▁South	-8.8794
▁others	-8.88019
▁service	-8.88294
▁open	-8.88335
▁along	-8.88397
up	-8.88449
?”	-8.88613
="	-8.88806
▁include	-8.88808
▁How	-8.88995
ty	-8.89038
identifier	-8.89081
25	-8.89172
24	-8.89368
▁already	-8.89803
▁question	-8.89875
▁words	-8.90073
▁things	-8.90115
▁France	-8.90142
▁With	-8.90255
▁However	-8.90339
▁University	-8.90376
▁present	-8.9058
▁however	-8.90692
▁De	-8.90786
▁does	-8.91157
▁face	-8.9121
▁London	-8.91249
um	-8.91532
ro	-8.91549
ate	-8.91672
▁century	-8.91796
-04	-8.9187
▁keep	-8.91926
▁form	-8.92303
data	-8.92317
▁together	-8.9232
has	-8.92367
▁able	-8.92657
one	-8.92737
▁pre	-8.92841
land	-8.93126
▁house	-8.93148
▁children	-8.93192
▁enough	-8.93274
▁list	-8.93306
▁di	-8.93328
▁f	-8.93548
▁God	-8.93617
▁0	-8.93993
▁King	-8.94555
}	-8.94556
▁const	-8.94679
19	-8.94916
▁full	-8.95018
▁La	-8.95021
▁law	-8.95136
ur	-8.95251
ary	-8.95391
image	-8.95701
▁women	-8.95734
co	-8.9591
▁position	-8.95916
▁son	-8.95978
▁team	-8.96182
human	-8.96238
ter	-8.96275
▁father	-8.97264
▁Roosevelt	-8.97338
▁fire	-8.97354
▁nothing	-8.97462
▁white	-8.97553
▁future	-8.97687
▁World	-8.97903
▁sense	-8.97916
▁look	-8.97925
▁result	-8.98031
▁almost	-8.98066
▁England	-8.98174
ul	-8.98293
▁taken	-8.98294
▁command	-8.98523
▁pro	-8.98665
▁black	-8.987
▁clear	-8.98711
▁Europe	-8.98726
▁rather	-8.98935
▁having	-8.98964
ine	-8.99138
▁further	-8.99157
▁least	-8.99368
ra	-8.9948
▁plan	-8.99488
ma	-8.99733
▁understand	-8.99734
▁seemed	-8.99899
less	-9.00014
▁story	-9.00109
▁done	-9.00211
▁les	-9.00393
lk	-9.00401
▁word	-9.00635
▁St	-9.00715
▁access	-9.00749
time	-9.00883
의	-9.01127
▁para	-9.01485
ac	-9.01657
he	-9.01678
▁potential	-9.01795
▁money	-9.02042
▁force	-9.02157
を	-9.02172
▁person	-9.02614
▁seen	-9.02635
▁market	-9.02826
▁mind	-9.02906
li	-9.03005
la	-9.03269
do	-9.03279
▁William	-9.03395
▁role	-9.03648
▁half	-9.03728
ated	-9.03806
EB	-9.0388
('	-9.04118
▁v	-9.04283
www	-9.04331
26	-9.04342
▁asked	-9.04362
▁gave	-9.04446
am	-9.04447
▁type	-9.04687
em	-9.04897
▁true	-9.04918
▁else	-9.04954
▁free	-9.05017
▁yet	-9.05051
▁whole	-9.0542
▁management	-9.05515
history	-9.05525
▁dis	-9.05537
▁sure	-9.05781
▁various	-9.05814
▁6.	-9.05856
▁à	-9.06004
▁app	-9.06056
HI	-9.06252
ling	-9.06292
▁ensure	-9.06751
▁soon	-9.06762
를	-9.0677
12	-9.06782
ge	-9.07119
q	-9.07214
▁personal	-9.07281
▁view	-9.07423
▁du	-9.07589
▁air	-9.07797
▁run	-9.07894
▁five	-9.08238
▁Le	-9.08315
06	-9.08481
▁All	-9.08618
▁problem	-9.08622
▁r	-9.08712
中	-9.08733
▁Some	-9.08744
▁light	-9.08937
▁pp	-9.09009
▁x	-9.09027
▁brought	-9.09288
11	-9.09289
▁idea	-9.09327
%	-9.09504
▁body	-9.0957
▁call	-9.09655
base	-9.10002
get	-9.10131
是	-9.10233
ba	-9.10291
▁attack	-9.10397
▁common	-9.10415
▁May	-9.10477
▁read	-9.11294
▁working	-9.11343
▁turned	-9.11394
rs	-9.11403
lo	-9.11677
▁battle	-9.11777
▁field	-9.11809
ten	-9.12064
▁performance	-9.12252
New	-9.12391
▁short	-9.12428
▁action	-9.12481
▁write	-9.12515
▁non	-9.1252
ized	-9.12576
▁learning	-9.12604
▁range	-9.12613
▁itself	-9.12669
▁shall	-9.12676
▁test	-9.12744
27	-9.12772
go	-9.12818
▁above	-9.13157
28	-9.1334
")	-9.13651
▁wanted	-9.13711
15	-9.13921
At	-9.13999
ner	-9.14009
▁Press	-9.14146
▁love	-9.14227
In	-9.14234
▁means	-9.1424
▁table	-9.14372
▁8	-9.14391
16	-9.14439
▁Do	-9.14538
▁start	-9.14592
▁House	-9.14635
ie	-9.14662
parts	-9.14679
▁6	-9.15023
▁hard	-9.1509
18	-9.15116
▁troops	-9.1523
▁North	-9.15314
ley	-9.15329
▁sea	-9.15382
▁15	-9.15513
30	-9.15563
▁moment	-9.15708
▁led	-9.15765
▁show	-9.16109
▁provided	-9.16178
▁whose	-9.1625
▁response	-9.16327
ff	-9.1635
im	-9.16397
▁Germany	-9.1654
per	-9.16621
ating	-9.16654
▁whether	-9.16684
ab	-9.16692
ization	-9.16714
▁felt	-9.16855
▁improve	-9.16959
▁method	-9.1698
▁account	-9.17408
▁product	-9.17497
▁impact	-9.17575
▁needed	-9.17584
▁members	-9.17793
-05	-9.18034
participle	-9.18045
paragraph	-9.18087
▁behind	-9.18108
▁tell	-9.18223
▁hundred	-9.18443
▁Washington	-9.18531
▁lost	-9.18551
mo	-9.18767
▁kind	-9.18792
▁months	-9.1913
▁Army	-9.19163
":{"	-9.19316
▁twenty	-9.19386
▁questions	-9.19416
▁Can	-9.19472
▁building	-9.19474
▁Then	-9.19499
31	-9.19574
out	-9.19815
ies	-9.1985
▁party	-9.19963
▁food	-9.20066
▁certain	-9.20189
io	-9.20414
▁thing	-9.20422
▁held	-9.20424
▁current	-9.20586
▁close	-9.20625
14	-9.20738
▁anything	-9.20797
▁def	-9.20816
▁James	-9.20858
▁eyes	-9.21126
▁ten	-9.21153
▁turn	-9.21162
▁West	-9.21225
▁Al	-9.21257
▁security	-9.21263
▁single	-9.21322
ish	-9.2133
▁My	-9.21407
▁services	-9.21415
이	-9.21611
▁search	-9.21781
QA	-9.21916
▁why	-9.21923
▁add	-9.22182
▁enemy	-9.22414
▁heart	-9.22523
se	-9.22587
▁rest	-9.22672
▁period	-9.22728
▁•	-9.22729
了	-9.22838
▁design	-9.23028
▁economic	-9.23226
▁soldiers	-9.23727
"],	-9.23768
▁didn	-9.23944
ance	-9.23951
Re	-9.23996
▁private	-9.2411
▁trade	-9.24183
▁approach	-9.24323
17	-9.24437
▁message	-9.24463
▁George	-9.24687
▁times	-9.24757
▁chapter	-9.2483
ut	-9.24874
cid	-9.24973
!”	-9.24973
▁ground	-9.25117
que	-9.25119
▁strong	-9.25148
▁front	-9.25191
ous	-9.25319
▁level	-9.25413
▁room	-9.25425
ent	-9.25509
new	-9.25532
▁7	-9.25688
▁car	-9.25755
bb	-9.25755
▁['	-9.2584
▁mother	-9.2591
▁resources	-9.26006
▁post	-9.26025
ting	-9.26235
▁sub	-9.26279
QAAE	-9.26391
▁age	-9.26608
end	-9.26658
▁Britain	-9.26672
▁Union	-9.26721
▁late	-9.26775
22	-9.26928
▁Be	-9.26976
ful	-9.27045
29	-9.27046
▁necessary	-9.27105
13	-9.27129
33	-9.27136
ted	-9.27139
)","	-9.27267
▁near	-9.27309
▁decision	-9.27615
for	-9.27686
au	-9.27777
wBDA	-9.27788
▁individual	-9.27824
▁terms	-9.27964
▁systems	-9.28066
▁pour	-9.28197
▁image	-9.28239
JD	-9.28341
▁20	-9.28405
line	-9.28439
▁believe	-9.28523
▁national	-9.28563
▁THE	-9.28641
▁king	-9.29312
▁Great	-9.29354
▁II	-9.29527
▁feel	-9.29559
▁object	-9.29579
▁looked	-9.29701
py	-9.29894
23	-9.29923
50	-9.29979
▁forces	-9.30005
▁letter	-9.30008
▁answer	-9.30082
▁X	-9.30304
jAAAAA	-9.30364
▁town	-9.3049
▁whom	-9.30497
▁From	-9.30548
tic	-9.30702
▁risk	-9.30767
▁Jews	-9.30801
▁Henry	-9.31107
▁cost	-9.31318
▁lead	-9.31333
▁7.	-9.31346
有	-9.31368
▁12	-9.31443
▁program	-9.3147
▁events	-9.31569
▁—	-9.31591
▁See	-9.31669
▁received	-9.31828
▁technology	-9.31833
▁hope	-9.31885
▁features	-9.32067
AAAAAAQ	-9.32084
▁top	-9.32197
▁co	-9.32229
QAAAAAAAAA	-9.32303
fa	-9.32377
den	-9.32549
▁cause	-9.32667
▁30	-9.32679
▁results	-9.32689
▁training	-9.32823
▁move	-9.32978
ee	-9.33095
▁area	-9.33245
▁thousand	-9.33279
▁six	-9.33325
▁major	-9.33329
▁president	-9.33343
ler	-9.33356
▁While	-9.33372
▁morning	-9.33381
▁hands	-9.33381
▁matter	-9.33469
▁either	-9.33629
▁try	-9.33847
▁event	-9.33937
▁job	-9.33994
▁needs	-9.3401
▁Mr	-9.34176
jpeg	-9.3418
▁Lincoln	-9.34208
▁game	-9.34248
▁health	-9.34384
▁success	-9.3445
–1	-9.34473
▁print	-9.3448
▁interest	-9.34489
▁available	-9.34518
▁European	-9.34659
▁Now	-9.34659
▁East	-9.34686
▁Co	-9.34726
▁states	-9.34773
▁Hitler	-9.34774
▁school	-9.34808
▁continued	-9.34822
CAA	-9.34877
<	-9.34887
po	-9.35097
tbHV	-9.35165
We	-9.35377
▁/	-9.3538
date	-9.35429
cHJ	-9.35534
AAQSkZJRgABAQAA	-9.35589
▁President	-9.35698
64,/	-9.35698
BST	-9.35719
▁anti	-9.35737
QEB	-9.35949
my	-9.35955
we	-9.36038
ke	-9.36071
▁taking	-9.36143
▁ship	-9.36287
▁ex	-9.36297
▁million	-9.36366
▁woman	-9.36384
09	-9.36466
▁size	-9.36591
ec	-9.3661
▁heard	-9.36639
AQABAA	-9.36669
▁organization	-9.3669
に	-9.3674
▁miles	-9.36769
▁16	-9.36859
▁del	-9.36925
▁nature	-9.36926
▁financial	-9.36989
ci	-9.37134
ka	-9.3714
▁remained	-9.37151
fe	-9.37198
▁friends	-9.3733
▁values	-9.37334
BAQEB	-9.37411
▁Con	-9.3755
는	-9.3758
cmE	-9.37608
▁friend	-9.37619
▁policy	-9.37623
if	-9.37652
AAPK	-9.37664
dHB	-9.3767
CZmY	-9.37674
AAANW	-9.37676
WFlaIAAAAAAAA	-9.37679
AAAAAAAQAAAA	-9.37681
AAApbAAAAAAAAAAB	-9.37685
FhZWiAAAAAAAAB	-9.37723
gAAAAcAHMAUgBHAE	-9.3774
▁met	-9.37746
▁especially	-9.3775
AAAABR	-9.37805
ZXNj	-9.37807
AAAABRiWFlaAAAB	-9.37807
AAAABRnWFlaAAAB	-9.37807
RyWFlaAAAB	-9.37808
▁Soviet	-9.37808
UNDX	-9.37827
ZJTEUAAQEAAA	-9.37834
tbnRyUkdCIFhZWiA	-9.3784
wAAB	-9.3794
▁play	-9.3798
▁die	-9.38167
**	-9.38442
ABhY	-9.38442
▁August	-9.385
▁required	-9.38603
df	-9.38637
AAAAAAAAAAAAAQAA	-9.38667
NwAAAAA	-9.38964
▁train	-9.38969
▁March	-9.39063
ga	-9.39119
에	-9.39297
▁Mar	-9.39496
▁peace	-9.39533
▁final	-9.39533
▁los	-9.39549
self	-9.39606
▁cannot	-9.39662
▁input	-9.39721
UGC	-9.39759
64	-9.39802
AAAAC	-9.39881
▁modern	-9.39892
▁hours	-9.39899
▁really	-9.39914
▁customer	-9.40054
▁Japanese	-9.40144
AhEBAx	-9.40288
wAARCA	-9.40289
AeAB	-9.40386
▁build	-9.40464
REND	-9.40559
▁wife	-9.40634
▁leave	-9.40763
CAgICAgM	-9.40866
▁community	-9.40877
ber	-9.40891
DASIA	-9.40917
war	-9.40938
QMDAwQD	-9.40947
▁reason	-9.40971
CAgIDAwMD	-9.41061
▁evidence	-9.41112
all	-9.41202
EBD	-9.41215
▁natural	-9.41269
BAYE	-9.41354
BAgEBAg	-9.414
CwkL	-9.414
▁dead	-9.41402
IQEw	-9.41412
wSEx	-9.41417
EQCg	-9.41421
MCgs	-9.41426
AgGBg	-9.41433
OCwk	-9.41435
kICQ	-9.41448
kKDA	-9.41452
QgKCg	-9.41455
op	-9.4149
QEBD	-9.41507
▁Americans	-9.41535
AAADk	-9.41598
▁China	-9.4166
▁total	-9.41763
ADb	-9.41968
▁h	-9.41984
▁Ra	-9.42045
{	-9.42103
ex	-9.42105
▁media	-9.42151
XBh	-9.42175
ts	-9.42182
▁pay	-9.422
BRy	-9.422
▁June	-9.42215
SQBuAGMALgAgADIA	-9.42228
MAAx	-9.42229
ABlA	-9.42241
cAEcA	-9.42251
bwBvA	-9.42253
GcAb	-9.42258
CAAAAA	-9.42259
▁consider	-9.42268
CSgA	-9.4231
ak	-9.42316
UAAB	-9.42318
AAPh	-9.42321
AADj	-9.42342
imQA	-9.42357
led	-9.42359
AAABjAAAA	-9.42388
AAABUAAAA	-9.42407
gHYS	-9.42449
AAAt	-9.42452
▁First	-9.4256
▁est	-9.42681
▁July	-9.42818
▁tagging	-9.42892
▁energy	-9.42926
▁writing	-9.42937
▁likely	-9.43003
▁industry	-9.43232
set	-9.43368
▁target	-9.43504
▁population	-9.43505
▁low	-9.43714
ea	-9.43735
nd	-9.43861
ck	-9.43902
▁changes	-9.44005
▁character	-9.44037
der	-9.44101
不	-9.44143
▁followed	-9.44346
▁toward	-9.44365
ol	-9.44404
ard	-9.44491
▁big	-9.44528
▁created	-9.4453
▁par	-9.4468
▁passed	-9.44681
▁address	-9.44753
It	-9.44761
▁care	-9.44779
Dxtb	-9.44989
▁due	-9.45
▁State	-9.45047
▁issues	-9.45063
▁society	-9.45065
á	-9.4511
42	-9.45144
▁longer	-9.45166
▁complex	-9.45239
')	-9.45332
▁influence	-9.45419
mp	-9.45422
ti	-9.45482
▁Mo	-9.45521
▁attention	-9.45619
45	-9.45623
▁step	-9.45678
▁campaign	-9.45694
▁capital	-9.45762
▁9	-9.4595
▁Jewish	-9.45952
▁leading	-9.45976
▁situation	-9.46047
▁study	-9.46126
▁court	-9.46136
old	-9.46165
▁art	-9.46203
ze	-9.46362
▁report	-9.46415
▁users	-9.46552
▁effect	-9.46597
▁learn	-9.46602
▁died	-9.46634
▁application	-9.46706
▁looking	-9.46839
35	-9.46981
▁ways	-9.47036
les	-9.47194
();	-9.47195
▁perhaps	-9.47303
▁Sure	-9.47313
▁Charles	-9.47362
▁und	-9.478
▁network	-9.47803
▁issue	-9.47837
▁earlier	-9.47857
int	-9.47858
▁Use	-9.47967
▁error	-9.48102
day	-9.48267
▁share	-9.48287
ence	-9.483
▁Roman	-9.48372
▁live	-9.48516
-1	-9.48528
▁office	-9.48565
▁outside	-9.48633
▁officers	-9.48703
▁=>	-9.48819
▁written	-9.48837
▁수	-9.48848
▁kept	-9.48961
▁fight	-9.49048
ri	-9.49064
dy	-9.4912
▁unique	-9.4914
▁special	-9.49278
▁particular	-9.49346
▁Indian	-9.49347
▁April	-9.4959
▁difficult	-9.49613
▁g	-9.4965
▁bring	-9.49768
▁started	-9.4989
▁City	-9.49908
▁quickly	-9.49925
▁output	-9.49929
人	-9.50002
▁su	-9.50007
af	-9.50127
▁offer	-9.50149
▁September	-9.50247
▁everything	-9.50363
so	-9.50553
▁legal	-9.50599
▁quite	-9.50691
HVjA	-9.50695
▁significant	-9.50716
▁act	-9.50812
38	-9.50839
▁machine	-9.50911
▁third	-9.50932
▁Paris	-9.5129
36	-9.51409
▁returned	-9.51425
▁Man	-9.51522
が	-9.51649
ng	-9.51725
ni	-9.51951
▁north	-9.52244
▁subject	-9.52316
▁task	-9.52317
▁child	-9.52383
ung	-9.52393
▁k	-9.52405
▁rights	-9.52492
▁w	-9.52526
▁won	-9.52526
▁Lord	-9.52529
▁movement	-9.52561
part	-9.52699
▁living	-9.52714
▁Even	-9.52714
▁reached	-9.52835
▁popular	-9.52839
▁ideas	-9.5292
▁River	-9.5299
▁similar	-9.53008
▁arrived	-9.5304
▁Please	-9.53046
▁feet	-9.5308
▁red	-9.53237
▁tried	-9.5324
40	-9.53242
▁forward	-9.53348
▁previous	-9.53455
▁Robert	-9.53456
▁National	-9.53523
He	-9.53533
▁una	-9.53602
▁conditions	-9.53619
▁built	-9.53622
▁Sa	-9.53649
▁mean	-9.53732
▁ask	-9.53745
43	-9.53789
▁deep	-9.53847
▁Go	-9.53848
▁steps	-9.53934
▁tools	-9.54054
▁companies	-9.54101
▁considered	-9.54163
▁nation	-9.54175
ft	-9.54262
test	-9.54293
▁meeting	-9.54349
▁property	-9.54526
ists	-9.54716
▁8.	-9.54727
▁El	-9.54771
▁White	-9.54942
▁cut	-9.55025
44	-9.55031
▁simple	-9.55046
You	-9.55057
px	-9.55085
▁please	-9.55276
▁poor	-9.55282
▁killed	-9.55302
▁API	-9.55367
ize	-9.55444
▁Congress	-9.55579
▁{"	-9.55632
pa	-9.55794
di	-9.55883
▁En	-9.55925
▁ability	-9.55957
▁moved	-9.56151
▁instead	-9.56332
▁Law	-9.56359
▁source	-9.56413
▁fi	-9.56429
可以	-9.56548
48	-9.56687
-4	-9.56701
▁culture	-9.56712
▁string	-9.56722
▁beyond	-9.56747
▁believed	-9.56828
▁17	-9.56844
▁space	-9.56914
▁1,	-9.56926
▁version	-9.56974
▁alone	-9.57084
我	-9.57089
wBDAA	-9.5716
entity	-9.57184
▁powerful	-9.57243
ius	-9.57279
▁focus	-9.57306
▁blood	-9.57362
▁named	-9.57369
ang	-9.57448
▁structure	-9.57466
▁Y	-9.57625
▁page	-9.57632
▁today	-9.57807
▁request	-9.57966
▁continue	-9.58004
▁Thomas	-9.58109
▁former	-9.58196
▁follow	-9.58197
ship	-9.5826
▁doing	-9.58286
ite	-9.58289
▁strategy	-9.58424
▁Let	-9.58535
▁points	-9.58894
▁ready	-9.58909
lin	-9.58922
▁break	-9.58931
▁es	-9.58945
▁individuals	-9.58991
▁Bar	-9.59008
▁environment	-9.59093
ally	-9.59103
▁Rome	-9.59142
▁term	-9.59145
con	-9.59255
▁complete	-9.59361
▁hold	-9.59369
▁inter	-9.59379
▁nor	-9.59387
▁easy	-9.59395
▁Empire	-9.59415
▁towards	-9.59458
í	-9.5947
一	-9.59484
▁coming	-9.59577
▁price	-9.59586
ID	-9.59594
▁additional	-9.59658
49	-9.59712
▁students	-9.5984
▁trying	-9.59872
▁multiple	-9.59885
mer	-9.59929
▁Yes	-9.59983
52	-9.60155
▁send	-9.60183
▁south	-9.60188
vi	-9.60288
▁Create	-9.60353
▁audience	-9.60355
ow	-9.60358
▁problems	-9.6044
\"	-9.60526
▁Not	-9.60548
file	-9.60612
▁added	-9.60701
▁skills	-9.60729
ef	-9.61045
▁Her	-9.61115
▁October	-9.61127
▁fear	-9.61132
ial	-9.61304
▁creating	-9.61308
lu	-9.61418
▁seems	-9.61425
▁running	-9.61441
▁voice	-9.61476
60	-9.61505
90	-9.61575
size	-9.61577
▁January	-9.61584
▁growth	-9.61665
ham	-9.61698
▁marketing	-9.61774
▁Company	-9.61892
▁date	-9.61907
▁14	-9.61912
55	-9.61948
▁Or	-9.61961
▁original	-9.62021
▁13	-9.62109
▁camp	-9.62118
▁note	-9.62174
▁increase	-9.6219
▁foreign	-9.62203
▁thus	-9.62293
▁simply	-9.6231
du	-9.62322
ai	-9.62361
path	-9.62437
key	-9.62522
▁minutes	-9.62576
pe	-9.626
▁areas	-9.62666
86	-9.62717
▁particularly	-9.62726
▁platform	-9.6274
▁dark	-9.62752
▁purpose	-9.62826
▁rule	-9.62839
To	-9.62947
▁Pro	-9.62973
▁--	-9.62976
37	-9.62979
▁meet	-9.63034
▁Chinese	-9.63082
ron	-9.63149
▁18	-9.63182
▁products	-9.632
▁rate	-9.63349
▁fall	-9.6335
47	-9.63416
▁correct	-9.63416
ip	-9.63425
['	-9.63443
▁check	-9.63557
ver	-9.63631
▁leaders	-9.63636
▁region	-9.63654
▁Your	-9.63655
▁works	-9.6385
▁conflict	-9.63902
ig	-9.63955
▁operations	-9.64072
▁stood	-9.64108
▁November	-9.64127
python	-9.64203
▁path	-9.64221
▁lay	-9.64303
89	-9.64453
ah	-9.64588
▁quality	-9.64755
▁relationship	-9.64755
log	-9.64772
56	-9.64806
88	-9.64812
05	-9.64877
▁India	-9.64916
75	-9.64974
▁Paul	-9.64974
▁river	-9.65155
▁communication	-9.65176
99	-9.6525
▁beginning	-9.65272
▁described	-9.65405
▁December	-9.65468
34	-9.65567
80	-9.65615
sh	-9.65645
tion	-9.65667
は	-9.65699
based	-9.65705
▁Dr	-9.65874
▁entire	-9.6603
等	-9.66081
▁international	-9.66187
▁road	-9.66197
▁progress	-9.66231
▁brother	-9.66315
▁practice	-9.6641
▁Yet	-9.6644
▁customers	-9.66463
▁groups	-9.66477
ez	-9.66702
▁decided	-9.66837
ward	-9.66955
▁\	-9.66996
bo	-9.67037
▁Spanish	-9.67064
▁religious	-9.67083
ado	-9.67179
▁reported	-9.67189
▁Sir	-9.67289
▁justice	-9.67329
▁stop	-9.67476
▁lo	-9.67533
▁worked	-9.6757
▁expected	-9.67688
41	-9.67731
▁paper	-9.67761
))	-9.67767
▁web	-9.67819
▁base	-9.67829
ities	-9.67863
使用	-9.67933
▁throughout	-9.68002
▁ships	-9.68129
izing	-9.68135
app	-9.68157
▁identify	-9.68302
上	-9.68313
No	-9.6835
ho	-9.68451
▁week	-9.68631
mi	-9.687
03	-9.68713
58	-9.68743
▁effective	-9.68802
year	-9.68857
js	-9.68934
▁script	-9.69009
▁pass	-9.69027
▁Once	-9.69102
▁intelligence	-9.69143
▁allow	-9.69144
▁leader	-9.69145
▁Un	-9.69158
가	-9.69182
▁loss	-9.69184
port	-9.69352
▁countries	-9.69419
▁Pa	-9.69425
tu	-9.69545
02	-9.6955
▁officer	-9.6961
▁greater	-9.69729
▁style	-9.69892
mar	-9.69966
▁com	-9.69976
▁amount	-9.70068
conflict	-9.70116
"},"	-9.70222
db	-9.70321
▁weeks	-9.70334
81	-9.7034
71	-9.70348
tor	-9.70416
▁provides	-9.70456
br	-9.70535
val	-9.70584
▁carried	-9.70637
▁si	-9.70641
▁contract	-9.70685
63	-9.70987
39	-9.71069
▁Russian	-9.71094
54	-9.71134
▁Journal	-9.71173
▁sometimes	-9.71212
51	-9.7125
va	-9.71311
▁included	-9.71326
▁100	-9.71369
▁da	-9.71389
▁Act	-9.71426
07	-9.71451
▁Christian	-9.71502
87	-9.71505
▁challenges	-9.71555
08	-9.71562
ud	-9.71587
▁Although	-9.71638
▁finally	-9.71654
▁11	-9.71668
ability	-9.71695
ier	-9.71705
way	-9.71725
▁stay	-9.71739
▁goals	-9.71795
content	-9.71808
▁higher	-9.71845
ator	-9.71924
46	-9.71938
▁lives	-9.71986
|	-9.72038
▁Na	-9.72083
▁software	-9.72141
▁fell	-9.72141
ure	-9.72162
▁nearly	-9.72163
▁(19	-9.72182
82	-9.72187
▁hear	-9.7219
-07	-9.72282
▁types	-9.7229
ae	-9.72297
65	-9.72418
▁qui	-9.72571
▁door	-9.72713
▁Russia	-9.72805
ville	-9.72853
▁methods	-9.72905
▁series	-9.73077
▁probably	-9.73096
▁generate	-9.7317
use	-9.73196
▁sa	-9.73234
62	-9.73266
vo	-9.73271
bar	-9.73801
▁established	-9.73861
cc	-9.73868
▁round	-9.73868
▁document	-9.73887
98	-9.73937
91	-9.74023
▁meant	-9.7406
▁talk	-9.74077
▁allowed	-9.74153
$	-9.74192
ó	-9.74241
her	-9.74246
ven	-9.74299
▁9.	-9.74299
▁gone	-9.74337
▁production	-9.74365
▁therefore	-9.74387
▁client	-9.74526
▁Me	-9.74655
ha	-9.74665
▁stand	-9.74704
event	-9.74751
▁David	-9.74753
mon	-9.74756
▁San	-9.74834
▁bad	-9.74846
▁store	-9.74852
▁physical	-9.7488
min	-9.74887
▁wide	-9.74904
96	-9.74908
ger	-9.74932
side	-9.75087
▁meaning	-9.75157
▁Mary	-9.75159
▁elements	-9.75283
▁Church	-9.75294
za	-9.75319
svg	-9.75362
▁allows	-9.75376
gen	-9.75385
eb	-9.75476
▁fighting	-9.75516
▁stock	-9.75518
▁Chapter	-9.75564
▁chief	-9.75568
▁providing	-9.75595
▁Street	-9.75686
sa	-9.75742
▁board	-9.75763
▁cases	-9.75805
▁appeared	-9.7584
▁news	-9.75857
not	-9.75869
▁involved	-9.759
▁Their	-9.76086
▁behavior	-9.76151
▁Africa	-9.76162
84	-9.76172
▁cultural	-9.76304
▁positive	-9.76307
▁ran	-9.76402
▁lines	-9.76416
▁une	-9.76442
ative	-9.76502
▁education	-9.76518
▁reach	-9.76633
▁truth	-9.76744
▁designed	-9.76762
▁sound	-9.7677
▁ha	-9.76796
▁website	-9.76961
▁labor	-9.77085
ning	-9.77104
▁speak	-9.77194
▁effort	-9.77197
74	-9.77215
tre	-9.77227
ana	-9.77317
▁respect	-9.77322
▁Ro	-9.77388
red	-9.77436
▁details	-9.77442
ible	-9.77451
▁numbers	-9.77469
▁US	-9.77483
but	-9.77489
▁authority	-9.77678
▁reduce	-9.77747
▁Western	-9.77779
70	-9.77821
▁handle	-9.77872
code	-9.77909
*	-9.7795
#	-9.7804
▁solution	-9.78065
▁domain	-9.78068
off	-9.78135
ors	-9.78149
61	-9.78177
▁Ha	-9.78204
tro	-9.78205
▁status	-9.78212
▁Black	-9.78266
▁spent	-9.78302
▁sur	-9.78451
ED	-9.78454
▁lived	-9.78489
▁empire	-9.7852
59	-9.7852
▁article	-9.78536
▁disorder	-9.78673
▁relevant	-9.78695
ious	-9.78713
De	-9.78777
ise	-9.78807
that	-9.78818
gu	-9.78821
▁Ho	-9.7883
▁save	-9.78849
▁efforts	-9.78994
▁ho	-9.79034
king	-9.79073
▁lot	-9.79144
ov	-9.79259
gg	-9.79266
▁factors	-9.79447
▁inside	-9.79506
AM	-9.79559
▁February	-9.79575
▁von	-9.79627
▁chance	-9.79715
▁Party	-9.79729
▁der	-9.79752
ay	-9.79776
▁getting	-9.79796
▁material	-9.79819
▁offered	-9.79823
can	-9.79862
▁activities	-9.79871
div	-9.79892
▁Many	-9.79898
▁heavy	-9.79958
▁sort	-9.79963
Name	-9.79999
▁someone	-9.80005
▁Se	-9.80071
▁learned	-9.80102
▁50	-9.80369
▁sat	-9.80441
▁ordered	-9.80474
▁although	-9.80499
57	-9.80499
law	-9.80559
▁server	-9.80571
▁Wilson	-9.80696
66	-9.80728
Id	-9.80809
▁prevent	-9.80838
94	-9.80843
▁direct	-9.80861
95	-9.80895
ap	-9.8091
car	-9.80935
</	-9.80947
▁ancient	-9.81013
AA	-9.81104
▁During	-9.81133
ny	-9.8115
▁manage	-9.81198
dd	-9.81244
▁actually	-9.81304
▁vi	-9.81373
▁fine	-9.81423
▁central	-9.81524
▁track	-9.81545
▁Pre	-9.8157
68	-9.81615
▁thirty	-9.81616
▁staff	-9.81647
▁opportunity	-9.81732
77	-9.81811
▁Ibid	-9.81832
85	-9.8184
over	-9.81873
▁failed	-9.81919
▁distance	-9.82012
▁journey	-9.82061
▁Virginia	-9.82098
width	-9.82128
▁finished	-9.82151
▁actions	-9.82212
72	-9.82254
▁require	-9.82264
69	-9.82265
▁seem	-9.82316
▁successful	-9.82368
▁shot	-9.82395
04	-9.82529
▁email	-9.82538
▁paid	-9.82551
76	-9.82618
53	-9.82634
”:	-9.8265
state	-9.82664
▁Our	-9.82692
net	-9.82733
▁Germans	-9.82735
▁secret	-9.8289
性	-9.82998
▁directly	-9.8301
ek	-9.83036
▁develop	-9.83066
▁indeed	-9.8312
92	-9.8314
▁according	-9.83159
▁summer	-9.8318
▁strength	-9.83192
ix	-9.83266
▁professional	-9.83275
":["	-9.83284
▁police	-9.8334
▁Smith	-9.83367
▁examples	-9.83421
▁options	-9.83462
()`	-9.83482
▁instance	-9.83613
_(	-9.83685
class	-9.83713
▁arms	-9.83777
▁models	-9.83821
地	-9.83827
&	-9.83858
▁speech	-9.83879
▁music	-9.83934
▁Z	-9.83954
▁avoid	-9.83986
▁month	-9.84004
nt	-9.84029
▁deal	-9.84087
▁visit	-9.8417
▁vol	-9.84177
ster	-9.84191
▁tasks	-9.84219
▁sun	-9.84355
▁@	-9.84539
▁sentence	-9.84643
▁na	-9.84754
67	-9.84763
▁southern	-9.8481
ile	-9.84815
▁lower	-9.84872
▁Of	-9.8504
▁addition	-9.85093
83	-9.85105
▁below	-9.85189
73	-9.85219
▁requirements	-9.85235
▁essential	-9.85248
?"	-9.85268
▁brand	-9.8527
▁developed	-9.85349
▁mass	-9.85374
pro	-9.85431
▁hour	-9.85537
▁Spain	-9.85607
▁stage	-9.85705
▁immediately	-9.85875
▁career	-9.85881
▁figure	-9.8594
▁associated	-9.85964
ko	-9.85965
▁Ar	-9.86004
▁10.	-9.86144
▁choice	-9.86159
▁happened	-9.86176
▁Jackson	-9.86217
▁Lee	-9.86226
▁author	-9.86314
▁forced	-9.86315
은	-9.8633
93	-9.86348
St	-9.86359
▁feeling	-9.86359
▁church	-9.86409
ii	-9.86419
▁boy	-9.8647
▁sign	-9.86473
▁Alexander	-9.865
▁benefits	-9.86503
79	-9.86508
▁earth	-9.86677
▁charge	-9.86719
▁Project	-9.86727
▁appropriate	-9.86727
▁everyone	-9.86744
▁thinking	-9.86752
▁40	-9.86757
▁construction	-9.86837
▁presence	-9.86865
▁condition	-9.86867
▁Japan	-9.86869
tra	-9.86901
▁Fe	-9.86933
ology	-9.86957
▁civil	-9.87065
▁mis	-9.87101
▁pressure	-9.87175
▁element	-9.87198
▁published	-9.87257
97	-9.87357
▁husband	-9.87474
▁victory	-9.87494
like	-9.87591
mb	-9.8764
▁middle	-9.87696
▁member	-9.87769
▁sources	-9.87857
到	-9.87889
▁manner	-9.87957
▁seven	-9.87958
▁record	-9.87985
▁critical	-9.87985
▁tu	-9.87987
▁Sea	-9.88039
AC	-9.88048
gi	-9.88141
▁gold	-9.88198
▁\"	-9.88219
▁j	-9.88267
▁column	-9.88285
▁laws	-9.88303
▁Data	-9.88303
▁library	-9.88318
cf	-9.88333
▁</	-9.88396
▁online	-9.88414
▁organizations	-9.88444
▁Car	-9.885
▁Di	-9.88538
wikidata	-9.88556
▁Court	-9.88604
▁Louis	-9.8876
▁hit	-9.88767
table	-9.88882
78	-9.88933
▁location	-9.88954
mm	-9.88966
▁Vi	-9.88971
▁African	-9.88977
▁myself	-9.89021
▁remember	-9.89115
▁color	-9.89124
▁practices	-9.89141
▁z	-9.89179
▁maintain	-9.89179
▁explain	-9.89203
▁Red	-9.8936
▁theory	-9.89361
Al	-9.89385
▁press	-9.89401
▁traditional	-9.89416
▁Island	-9.89466
▁served	-9.89482
▁goal	-9.89549
iv	-9.8955
▁mid	-9.89631
well	-9.89804
action	-9.89822
▁center	-9.89834
▁wrong	-9.89869
▁commander	-9.89886
▁techniques	-9.89899
▁eye	-9.89916
▁25	-9.89926
ue	-9.89945
ations	-9.8996
▁Johnson	-9.89969
用	-9.90057
LOC	-9.90059
▁array	-9.90062
▁includes	-9.90158
▁1:	-9.90164
▁rich	-9.90188
ments	-9.90299
▁global	-9.90315
oc	-9.90447
▁cross	-9.9051
aa	-9.90515
▁percent	-9.90595
ina	-9.90638
▁master	-9.9067
head	-9.90687
▁Management	-9.9073
AAAAAAAA	-9.90742
John	-9.90778
▁easily	-9.90917
▁official	-9.91008
▁title	-9.91067
▁makes	-9.91072
▁bit	-9.91158
▁pain	-9.91215
▁growing	-9.91247
▁doubt	-9.91272
An	-9.91279
▁pe	-9.91327
▁cities	-9.91391
▁Day	-9.91413
▁algorithms	-9.91476
La	-9.91534
▁interests	-9.91535
▁achieve	-9.91575
om	-9.91615
▁Indians	-9.91645
nes	-9.91655
▁race	-9.91912
iz	-9.91938
▁saying	-9.91955
▁por	-9.92011
▁Greek	-9.92014
ium	-9.92042
出	-9.9211
eg	-9.9214
▁usually	-9.92195
▁==	-9.9222
▁Su	-9.92251
▁dans	-9.923
▁tax	-9.92306
bi	-9.9233
▁Po	-9.92352
add	-9.92463
▁increased	-9.92493
hi	-9.92494
▁19	-9.9251
pt	-9.92523
▁Th	-9.92652
▁[],	-9.92667
▁workers	-9.92761
▁Two	-9.92837
▁shared	-9.92959
house	-9.92967
train	-9.92984
你	-9.93004
height	-9.9302
▁te	-9.93024
▁fast	-9.93044
▁says	-9.93066
▁science	-9.93073
▁mission	-9.93131
ORG	-9.93144
▁Hill	-9.93182
▁overall	-9.93214
▁Don	-9.93302
로	-9.9332
▁medical	-9.93324
->	-9.93431
▁anyone	-9.93475
What	-9.93486
▁agreed	-9.93608
▁caused	-9.93621
back	-9.93633
SE	-9.93826
▁trust	-9.94037
ik	-9.9404
▁spread	-9.94059
▁Revolution	-9.94131
▁eight	-9.94174
▁fellow	-9.94194
▁sales	-9.94277
▁protect	-9.94299
▁statement	-9.94326
My	-9.94351
한	-9.94396
▁format	-9.94399
▁\*	-9.94465
100	-9.94474
▁conversation	-9.94535
▁rise	-9.94557
▁supply	-9.9458
epub	-9.94589
▁receive	-9.94599
▁secure	-9.9464
▁regular	-9.94706
▁speed	-9.94852
▁west	-9.94864
▁lack	-9.94917
▁OF	-9.94934
ey	-9.94953
▁names	-9.94975
▁balance	-9.94976
▁Italy	-9.95033
▁Most	-9.9509
分	-9.9511
▁worth	-9.95118
▁im	-9.95125
len	-9.95216
PERSON	-9.95317
▁daughter	-9.95317
▁Richard	-9.95346
ice	-9.95411
▁scene	-9.95586
▁rules	-9.95591
▁é	-9.95725
▁Bo	-9.95761
▁length	-9.95763
main	-9.9578
">	-9.95839
▁ne	-9.95839
our	-9.95938
ot	-9.96053
ical	-9.96054
ford	-9.96054
/9	-9.9611
▁automated	-9.96118
▁opened	-9.96137
bc	-9.96141
▁video	-9.96171
需要	-9.96186
ped	-9.96211
istic	-9.96339
edit	-9.96405
Data	-9.96484
▁las	-9.96516
▁index	-9.96549
let	-9.96568
fc	-9.96585
▁weight	-9.96736
▁fit	-9.96762
ide	-9.96875
▁attempt	-9.9688
▁recent	-9.96949
▁separate	-9.96951
▁drive	-9.97002
AI	-9.97002
▁reputation	-9.97005
ick	-9.97031
cy	-9.97035
▁claim	-9.97169
▁evening	-9.97204
▁except	-9.97216
▁port	-9.97242
sch	-9.97328
pp	-9.97352
▁decisions	-9.97385
down	-9.97387
▁il	-9.97466
GPE	-9.97491
pre	-9.97531
▁2:	-9.97706
▁EPUB	-9.97726
▁scale	-9.97805
▁changed	-9.97838
▁village	-9.97987
▁responsible	-9.98015
▁reading	-9.98139
▁helped	-9.98141
▁cold	-9.98154
▁opportunities	-9.98178
▁Pe	-9.98234
ep	-9.98271
或	-9.98295
uk	-9.98412
this	-9.98481
▁uses	-9.9849
ns	-9.98634
ification	-9.98662
tal	-9.98733
▁digital	-9.98785
▁played	-9.98813
▁demand	-9.98817
hu	-9.98862
▁Per	-9.98869
▁effects	-9.98891
ably	-9.98977
▁sleep	-9.99141
▁III	-9.99166
▁Python	-9.99343
▁connection	-9.99364
bf	-9.99405
▁bar	-9.99432
▁Society	-9.99447
jo	-9.99483
with	-9.99535
▁declared	-9.99536
▁이	-9.99538
▁leaving	-9.99689
cb	-9.99797
zi	-9.99918
▁orders	-9.99934
ada	-10.0015
▁strategies	-10.0019
▁certainly	-10.0031
▁politics	-10.0033
▁spirit	-10.0037
lib	-10.005
▁larger	-10.0052
▁foot	-10.0055
wa	-10.0055
fb	-10.0063
▁spoke	-10.0069
▁https	-10.0076
▁economy	-10.0078
ath	-10.0082
▁treatment	-10.0083
▁Churchill	-10.0085
▁sight	-10.0085
lan	-10.0097
▁limited	-10.0098
5.0).	-10.01
▁island	-10.0103
▁cover	-10.0104
▁happy	-10.0113
▁31	-10.0119
▁difference	-10.0122
▁Times	-10.0123
EN	-10.0133
ou	-10.0135
▁slaves	-10.0137
▁Page	-10.0138
▁vision	-10.0147
Le	-10.0157
ru	-10.0158
▁credit	-10.0172
LE	-10.0175
▁Edward	-10.0179
cd	-10.0179
two	-10.0181
▁Life	-10.0182
▁highly	-10.0183
nn	-10.0188
▁processes	-10.0189
▁Why	-10.019
▁perform	-10.02
▁projects	-10.0204
▁identity	-10.0209
▁equal	-10.021
term	-10.0211
▁letters	-10.0215
-08	-10.0219
▁fields	-10.023
▁standard	-10.0242
▁disease	-10.0248
▁advanced	-10.0258
▁argument	-10.0259
ran	-10.0266
▁plans	-10.0269
▁contact	-10.0272
▁opinion	-10.0274
▁direction	-10.0275
▁raised	-10.0275
▁determined	-10.0275
为	-10.028
ring	-10.0289
▁Egypt	-10.029
▁Civil	-10.0291
▁east	-10.0292
▁concept	-10.0293
▁famous	-10.0293
▁Ta	-10.0309
▁(1	-10.0309
▁takes	-10.0312
▁initial	-10.0315
▁parties	-10.0328
cu	-10.0338
han	-10.0344
▁count	-10.0345
▁exchange	-10.0345
je	-10.0352
▁defeat	-10.0356
zo	-10.0358
▁background	-10.0359
▁Another	-10.036
▁feature	-10.0364
▁Google	-10.0371
kin	-10.0372
と	-10.0373
hr	-10.0373
BA	-10.0375
▁2,	-10.0384
▁joined	-10.0385
▁Am	-10.0388
▁tool	-10.0388
▁remain	-10.039
▁determine	-10.0395
▁review	-10.0397
AL	-10.0403
],	-10.0404
▁costs	-10.0407
ker	-10.0409
user	-10.041
▁effectively	-10.0413
har	-10.0416
▁Ver	-10.0417
▁studies	-10.0422
▁existing	-10.0424
▁International	-10.0425
▁placed	-10.0426
▁generally	-10.044
MS	-10.0449
rate	-10.0454
▁bank	-10.0457
▁horse	-10.0461
▁produce	-10.0479
▁operation	-10.048
▁Model	-10.0483
▁prepared	-10.0485
▁mental	-10.0491
▁oil	-10.0494
▁dé	-10.05
form	-10.0502
▁couldn	-10.0504
▁herself	-10.0506
▁showed	-10.0507
▁variety	-10.0509
▁moving	-10.0516
▁join	-10.0518
▁description	-10.0518
▁guns	-10.0519
▁basic	-10.0523
index	-10.0538
▁useful	-10.0545
で	-10.0548
nie	-10.0549
▁religion	-10.0553
▁Gu	-10.0555
▁Ri	-10.0557
five	-10.0569
▁option	-10.057
▁damage	-10.0575
▁moral	-10.0577
▁flow	-10.0579
▁serious	-10.0583
▁Hi	-10.0584
▁var	-10.0594
▁leadership	-10.0594
▁measure	-10.0596
fi	-10.0596
ned	-10.06
ki	-10.0602
ach	-10.0602
▁freedom	-10.0604
dis	-10.0604
以	-10.0605
▁comes	-10.0636
rd	-10.0644
과	-10.0647
▁false	-10.0663
将	-10.0665
▁employees	-10.0669
AB	-10.0676
▁applications	-10.0681
▁images	-10.0683
Do	-10.0688
num	-10.0689
▁stories	-10.0698
▁variable	-10.0698
▁Adams	-10.0705
are	-10.0707
▁refused	-10.071
ES	-10.0713
▁produced	-10.0715
т	-10.0715
▁hair	-10.0721
read	-10.0724
US	-10.0728
▁setting	-10.0732
▁girl	-10.0732
▁grew	-10.0738
▁safety	-10.0747
▁35	-10.0748
IA	-10.0749
▁win	-10.0749
▁id	-10.0753
row	-10.0761
▁born	-10.0765
▁introduction	-10.0768
▁Finally	-10.0771
▁display	-10.0771
对	-10.0774
▁Ca	-10.0774
ney	-10.0781
**:	-10.0782
▁blue	-10.0787
▁serve	-10.0788
▁prisoners	-10.0791
▁reports	-10.0792
▁guide	-10.0792
▁24	-10.0793
upload	-10.0796
▁negative	-10.0797
▁Department	-10.0802
▁Peter	-10.0813
▁filled	-10.0817
Ma	-10.0817
▁np	-10.0819
▁Li	-10.0828
▁royal	-10.0844
▁28	-10.0847
▁update	-10.0859
ified	-10.0863
▁experiences	-10.0864
▁spring	-10.0868
大	-10.0879
▁giving	-10.0884
count	-10.0888
▁Franklin	-10.09
vis	-10.0901
▁collection	-10.0904
▁gun	-10.0905
Ro	-10.091
▁clean	-10.0914
지	-10.0918
▁advantage	-10.092
▁parts	-10.0922
▁Just	-10.0924
▁measures	-10.0926
ions	-10.0928
하는	-10.0931
ING	-10.0938
▁Captain	-10.0942
bd	-10.0945
▁entered	-10.0961
▁street	-10.0963
▁protection	-10.097
▁Set	-10.0977
▁Bay	-10.0979
▁Men	-10.0984
▁film	-10.0987
▁window	-10.0998
▁있습니다	-10.1002
und	-10.1006
▁northern	-10.1014
▁relationships	-10.102
▁choose	-10.1027
来	-10.1041
▁updated	-10.1047
▁Ne	-10.1048
chapter	-10.105
▁Mrs	-10.1061
▁Like	-10.1062
▁levels	-10.1067
▁str	-10.1067
▁grow	-10.1074
book	-10.1079
▁heat	-10.1083
tt	-10.1088
▁green	-10.1089
▁po	-10.1089
▁27	-10.1093
cle	-10.11
ER	-10.1106
▁eventually	-10.1117
xAA	-10.1118
▁none	-10.1119
▁Ad	-10.1126
▁wind	-10.1131
▁agreement	-10.1133
sion	-10.1137
▁trouble	-10.1139
▁Ben	-10.1142
▁});	-10.1143
▁Berlin	-10.1146
ya	-10.115
▁Pacific	-10.1152
▁More	-10.1153
▁Ka	-10.1154
▁Add	-10.1157
▁Social	-10.1158
▁citizens	-10.1167
aspects	-10.1171
▁fought	-10.1175
▁Dis	-10.1177
berg	-10.118
▁Oxford	-10.1189
▁election	-10.119
▁average	-10.119
ju	-10.1191
lar	-10.1194
▁bed	-10.12
▁clearly	-10.1206
▁files	-10.1208
▁coast	-10.121
▁Dutch	-10.1211
don	-10.1212
CC	-10.122
▁Since	-10.1221
ique	-10.1221
▁fresh	-10.1224
▁Chicago	-10.1231
▁families	-10.1239
ré	-10.125
▁player	-10.1252
▁activity	-10.1254
▁Q	-10.1254
▁border	-10.1261
▁Second	-10.1262
е	-10.1274
AN	-10.1276
▁weapons	-10.1276
ong	-10.1291
▁internal	-10.1293
▁vast	-10.13
cha	-10.1305
▁businesses	-10.1306
ding	-10.1319
▁sin	-10.133
▁Lo	-10.133
If	-10.1332
London	-10.1335
rk	-10.1339
▁detailed	-10.1343
▁travel	-10.1345
▁advance	-10.1352
▁Service	-10.1354
▁actual	-10.136
▁wish	-10.1361
并	-10.1366
▁em	-10.1371
Type	-10.138
▁implement	-10.1381
▁discovered	-10.1382
▁beautiful	-10.1382
▁Thus	-10.1388
csv	-10.1392
▁fully	-10.1397
▁huge	-10.1397
mal	-10.1413
▁failure	-10.1413
Ex	-10.1417
▁functions	-10.1428
▁Battle	-10.1428
▁Each	-10.1433
▁threat	-10.1437
▁route	-10.1444
▁tree	-10.1448
▁perfect	-10.145
model	-10.1451
▁URL	-10.1454
ians	-10.1457
▁begin	-10.1457
▁match	-10.1465
▁Additionally	-10.1466
▁row	-10.147
할	-10.1472
面	-10.1478
▁intended	-10.1479
▁policies	-10.1482
▁reasons	-10.1483
▁Du	-10.1484
▁relations	-10.1485
▁contrast	-10.1486
▁firm	-10.1491
▁walk	-10.1493
▁gain	-10.1496
▁yourself	-10.1499
string	-10.1501
world	-10.1504
▁arm	-10.1505
▁counter	-10.1508
png	-10.1519
▁remains	-10.152
에서	-10.1527
▁standing	-10.1529
res	-10.1534
▁seek	-10.154
▁violence	-10.1542
pi	-10.1543
▁suggested	-10.1561
des	-10.1563
▁Make	-10.1565
mann	-10.1567
▁greatest	-10.1567
▁forty	-10.1572
ok	-10.1572
▁wait	-10.1573
▁floor	-10.1576
And	-10.1576
▁marriage	-10.1576
▁faith	-10.1579
wikimedia	-10.1584
ita	-10.1587
ren	-10.1593
▁generation	-10.1597
American	-10.16
▁People	-10.1602
SA	-10.1606
▁daily	-10.1607
▁Other	-10.1611
century	-10.1619
che	-10.1621
▁Italian	-10.1622
='	-10.1626
see	-10.1631
▁Despite	-10.1631
▁places	-10.1634
▁thousands	-10.1637
▁Write	-10.1639
ual	-10.1642
qu	-10.1642
cent	-10.1643
▁piece	-10.1644
▁gas	-10.1645
▁safe	-10.1649
▁algorithm	-10.1649
▁query	-10.1656
az	-10.1656
▁enter	-10.1663
▁copy	-10.1666
▁investment	-10.167
tr	-10.1672
▁despite	-10.1672
▁feedback	-10.1673
cher	-10.1679
▁western	-10.169
▁explore	-10.169
成	-10.1694
▁proposed	-10.1697
Ra	-10.1699
▁forms	-10.1701
▁Asia	-10.1703
▁involves	-10.1705
▁invasion	-10.1706
▁interview	-10.1717
ée	-10.1721
▁32	-10.1731
ever	-10.1731
▁administration	-10.174
▁Instead	-10.1745
▁brief	-10.1747
▁>	-10.1748
▁challenge	-10.1752
▁proved	-10.1758
▁unit	-10.1761
si	-10.1762
AR	-10.1766
▁struggle	-10.1772
▁shape	-10.178
▁attacks	-10.178
api	-10.178
▁slave	-10.1781
▁revolution	-10.1781
▁Fa	-10.1782
▁Over	-10.1791
pu	-10.1797
▁Grant	-10.1804
from	-10.181
▁reality	-10.1815
▁planning	-10.1818
▁fair	-10.1819
▁ahead	-10.182
▁wall	-10.1824
ries	-10.1824
▁desire	-10.1828
0026	-10.183
▁watch	-10.1835
▁Ex	-10.1847
▁appear	-10.1851
▁active	-10.1861
▁creation	-10.1862
art	-10.1863
lt	-10.1865
▁era	-10.1869
ell	-10.1871
▁High	-10.1872
▁shown	-10.1873
▁Van	-10.1873
four	-10.1877
下	-10.1877
▁Council	-10.1881
ST	-10.1882
eur	-10.1888
▁neither	-10.1892
low	-10.1897
子	-10.1897
▁Step	-10.1899
ku	-10.19
▁th	-10.1901
▁impossible	-10.1901
▁Government	-10.1902
▁covered	-10.1911
▁sought	-10.1911
str	-10.1914
▁contents	-10.1915
▁fifty	-10.1916
一个	-10.192
▁draw	-10.193
ther	-10.1936
tz	-10.1937
So	-10.1945
!"	-10.1948
▁interface	-10.1951
い	-10.1951
▁accept	-10.1951
▁capture	-10.1952
press	-10.1952
▁mentioned	-10.1952
▁weather	-10.1955
▁majority	-10.1955
▁Old	-10.196
▁implementation	-10.1963
▁22	-10.1966
▁managed	-10.1967
more	-10.197
▁Hu	-10.1971
▁formed	-10.1975
▁typically	-10.1977
ological	-10.1979
▁trip	-10.1983
html	-10.1985
aw	-10.1985
▁multi	-10.1988
▁sum	-10.1991
▁component	-10.1992
light	-10.1993
▁ce	-10.1993
▁conduct	-10.1994
mit	-10.1996
▁materials	-10.2
work	-10.2001
error	-10.2003
var	-10.2003
ery	-10.2007
▁Ma	-10.2009
▁29	-10.202
▁Carolina	-10.2021
▁season	-10.2025
▁Time	-10.2036
▁como	-10.2037
▁ago	-10.2038
AAAAAAAAAAAAAAAA	-10.2039
▁valuable	-10.2041
▁objects	-10.2048
고	-10.2079
▁shows	-10.2081
▁minister	-10.2081
Mo	-10.2085
SS	-10.2091
▁Note	-10.2093
▁California	-10.21
▁device	-10.2108
act	-10.2116
▁carry	-10.2117
▁Navy	-10.212
▁Philip	-10.2121
"}]}]},{"	-10.2123
▁Christ	-10.2129
▁button	-10.2129
ag	-10.2132
▁crew	-10.2134
▁emperor	-10.2135
▁Both	-10.2136
▁imperial	-10.214
▁surface	-10.2141
▁streets	-10.2142
ct	-10.2152
▁Review	-10.2165
▁height	-10.2167
▁ended	-10.2168
▁doesn	-10.2168
▁3:	-10.2171
sp	-10.2173
AD	-10.2175
▁###	-10.2175
▁powers	-10.2177
000	-10.2181
▁60	-10.2182
▁crisis	-10.2184
▁slavery	-10.2191
▁winter	-10.2194
▁fleet	-10.2197
▁strategic	-10.2207
▁defense	-10.221
▁bridge	-10.2214
▁Good	-10.2214
▁Bi	-10.2214
▁custom	-10.2221
▁Si	-10.2225
▁op	-10.2225
▁Brown	-10.2227
@	-10.2228
dc	-10.2229
▁testing	-10.2236
▁aid	-10.2237
▁Hall	-10.2243
▁items	-10.2244
▁Com	-10.2248
▁technical	-10.2248
하고	-10.2252
board	-10.2252
▁block	-10.2259
ale	-10.2263
时	-10.2264
▁expression	-10.2266
기	-10.2266
Ha	-10.2266
▁Who	-10.2268
RA	-10.2269
▁claimed	-10.2269
리	-10.227
▁officials	-10.2271
▁principles	-10.2276
▁Long	-10.2278
▁advice	-10.2283
av	-10.2291
▁solutions	-10.2292
▁Air	-10.2292
▁rain	-10.2294
-10	-10.2304
▁Lu	-10.2308
▁map	-10.2308
▁je	-10.2309
win	-10.2311
▁patient	-10.2313
▁trees	-10.2314
▁replied	-10.2315
▁informed	-10.2317
chi	-10.2319
▁ser	-10.2323
was	-10.2324
▁Col	-10.233
▁understood	-10.2331
와	-10.2332
▁Mac	-10.2339
input	-10.2339
▁station	-10.2343
▁Only	-10.2346
▁governor	-10.2348
EAAhEDE	-10.2348
▁%	-10.2348
ph	-10.2348
AMAw	-10.235
ify	-10.235
▁suggest	-10.2355
▁federal	-10.2357
▁stopped	-10.236
▁bear	-10.2365
fd	-10.2365
▁Art	-10.2373
▁rose	-10.2373
Con	-10.2378
json	-10.2379
▁wounded	-10.2384
wi	-10.2387
▁Well	-10.2388
sk	-10.2395
▁ideal	-10.2396
▁Mark	-10.2405
▁escape	-10.2406
▁Boston	-10.2408
ug	-10.2408
▁band	-10.2409
▁march	-10.2412
▁wealth	-10.2416
ev	-10.2428
▁CHAPTER	-10.2429
化	-10.2431
▁promote	-10.2432
▁computer	-10.2435
▁Joseph	-10.2437
▁coffee	-10.244
▁explained	-10.2441
▁fl	-10.2442
▁married	-10.2443
▁trans	-10.2445
ción	-10.2447
▁21	-10.2462
▁stone	-10.2468
▁offers	-10.2471
▁combination	-10.2471
▁34	-10.2475
OR	-10.2479
▁System	-10.2482
▁detail	-10.2484
▁armed	-10.2488
▁Before	-10.2488
ean	-10.2488
▁radio	-10.2493
AT	-10.2497
▁faced	-10.2507
commons	-10.2517
");	-10.2517
▁33	-10.2522
▁hot	-10.2528
EAC	-10.2529
su	-10.2537
▁Ge	-10.2538
▁circumstances	-10.2538
▁alternative	-10.2543
▁phone	-10.2552
▁principal	-10.2558
ob	-10.2559
tive	-10.256
bl	-10.2563
▁etc	-10.2566
▁cent	-10.2571
▁bound	-10.2574
Me	-10.2586
▁appearance	-10.2588
▁waiting	-10.2592
▁couple	-10.2598
▁Jo	-10.2601
▁holding	-10.2601
▁Mexico	-10.2606
▁square	-10.2613
gar	-10.2625
ight	-10.2625
▁allowing	-10.2626
----------------	-10.2629
▁Office	-10.263
▁presented	-10.2633
▁Park	-10.2635
▁becoming	-10.264
▁Committee	-10.264
▁passage	-10.2647
▁kill	-10.2647
▁worse	-10.2649
▁parents	-10.2654
ino	-10.2656
▁degree	-10.2657
ö	-10.266
▁token	-10.2663
▁Land	-10.2667
▁double	-10.2668
▁36	-10.2669
';	-10.2669
500	-10.2673
▁bill	-10.2673
cal	-10.2675
▁Sam	-10.2676
▁dangerous	-10.2677
OS	-10.2678
par	-10.2689
▁export	-10.2695
▁According	-10.2696
▁cell	-10.2697
▁accepted	-10.2698
▁Senate	-10.2699
▁student	-10.2701
illa	-10.2702
oo	-10.2705
▁plus	-10.2705
▁?	-10.2706
ü	-10.2712
number	-10.2712
FB	-10.2713
▁doctor	-10.2714
tes	-10.2716
▁classes	-10.2718
▁ou	-10.2719
ire	-10.2729
▁super	-10.2742
▁boat	-10.2742
van	-10.2746
▁Republic	-10.2747
▁noted	-10.2749
▁broke	-10.275
▁soldier	-10.2751
thumb	-10.2752
­	-10.2761
也	-10.2765
▁entirely	-10.2771
▁walls	-10.2771
▁Atlantic	-10.2776
▁expect	-10.2779
▁territory	-10.2782
▁box	-10.2785
▁resistance	-10.2788
making	-10.2789
▁strange	-10.2793
▁23	-10.2796
▁caught	-10.2799
▁affect	-10.2803
▁houses	-10.2805
▁defined	-10.2807
▁Division	-10.2814
▁Science	-10.2816
▁Sch	-10.2818
▁Israel	-10.2825
▁starting	-10.2827
▁ca	-10.2828
IS	-10.2829
IN	-10.2832
▁basis	-10.2832
▁(18	-10.2834
▁helps	-10.2839
El	-10.2845
RI	-10.2848
▁centuries	-10.2854
▁division	-10.2856
▁primary	-10.2857
▁Such	-10.2859
▁raise	-10.2863
▁Back	-10.2867
▁frame	-10.2871
RE	-10.2873
▁Cor	-10.2874
-2	-10.2881
ement	-10.2887
▁broken	-10.2887
▁prompt	-10.2892
map	-10.2897
力	-10.2899
▁Post	-10.2904
▁crucial	-10.2905
▁constant	-10.2906
▁sides	-10.2919
▁brain	-10.2928
▁purchase	-10.293
▁screen	-10.2931
post	-10.2942
ji	-10.2942
▁comprehensive	-10.2943
▁interested	-10.2943
▁Business	-10.2944
▁ch	-10.2945
▁distribution	-10.2948
▁AND	-10.295
▁bi	-10.2951
▁sl	-10.2958
▁components	-10.2958
▁Frank	-10.2961
▁buy	-10.2962
▁stress	-10.2963
▁concerns	-10.2965
▁ma	-10.2967
▁spot	-10.2974
▁wild	-10.2977
▁independent	-10.2981
ky	-10.2985
▁crowd	-10.2988
ins	-10.2991
position	-10.2992
▁Tu	-10.2993
▁practical	-10.2998
▁apply	-10.301
▁duty	-10.3013
行	-10.3016
▁combat	-10.3018
0:30	-10.302
Co	-10.3026
▁Ko	-10.3027
▁income	-10.3029
▁confidence	-10.3034
▁gr	-10.3036
▁slow	-10.3036
right	-10.3039
▁quick	-10.304
Be	-10.3041
▁Overall	-10.3042
ping	-10.3043
DB	-10.3044
▁benefit	-10.3044
▁developing	-10.3047
▁ge	-10.3049
tin	-10.3052
gent	-10.3052
▁Name	-10.3056
や	-10.3056
▁walked	-10.3056
者	-10.3059
▁trial	-10.3061
▁prison	-10.3065
▁captured	-10.3087
▁reference	-10.3089
ura	-10.3095
▁themes	-10.3095
wood	-10.3099
En	-10.31
▁pas	-10.3101
▁represent	-10.3108
▁Middle	-10.3114
▁increasingly	-10.3121
▁vote	-10.3126
▁},	-10.3128
▁responsibility	-10.3129
tar	-10.313
▁consequences	-10.3133
▁completely	-10.3133
▁cast	-10.3133
▁equipment	-10.3137
▁agent	-10.3143
▁proper	-10.3144
ー	-10.3145
▁install	-10.3148
▁Will	-10.315
▁Tom	-10.3152
label	-10.3153
▁execution	-10.3155
도	-10.3155
▁plot	-10.316
▁risks	-10.3162
une	-10.3163
▁fun	-10.3167
▁revenue	-10.3169
Ch	-10.3178
▁Catholic	-10.3181
▁Da	-10.3187
▁observed	-10.3192
ula	-10.3198
▁horses	-10.3199
▁suddenly	-10.3199
▁Mississippi	-10.3199
▁suffered	-10.3213
▁ill	-10.3217
▁captain	-10.3222
▁danger	-10.3222
▁star	-10.3223
▁requires	-10.3224
["	-10.3227
GR	-10.3231
IE	-10.3235
▁exist	-10.3241
▁link	-10.3253
▁sit	-10.3254
fer	-10.3255
▁Queen	-10.3255
▁Royal	-10.3261
°	-10.3271
▁pattern	-10.3274
ox	-10.328
ub	-10.3282
▁conclusion	-10.3284
▁describe	-10.3286
On	-10.3287
▁Thank	-10.3287
▁struck	-10.3296
ened	-10.3297
vel	-10.3297
ette	-10.3298
body	-10.3302
要	-10.3302
▁warm	-10.3304
▁pen	-10.3306
▁payment	-10.3306
▁UN	-10.331
▁grave	-10.3312
▁external	-10.3313
++	-10.3331
▁45	-10.3333
▁soul	-10.3336
United	-10.3339
▁increasing	-10.3342
▁select	-10.3347
▁sold	-10.3352
Ho	-10.3353
TH	-10.3355
List	-10.3361
bert	-10.3362
▁Martin	-10.3366
▁properties	-10.3371
▁2000	-10.3371
▁insights	-10.3372
▁ID	-10.3375
▁instructions	-10.3377
▁devices	-10.3379
long	-10.338
▁traffic	-10.3381
there	-10.3383
▁literature	-10.339
▁normal	-10.3391
▁native	-10.3391
▁efficient	-10.3391
Po	-10.3392
▁technologies	-10.3393
▁Jefferson	-10.3395
ו	-10.34
▁summary	-10.3404
ties	-10.3405
▁wasn	-10.342
cer	-10.3425
ero	-10.3428
GB	-10.3428
ON	-10.343
▁mouth	-10.3432
ido	-10.3436
小	-10.3436
ich	-10.3438
All	-10.3439
▁enemies	-10.344
This	-10.3444
▁supported	-10.3445
tri	-10.3465
Sa	-10.3468
');	-10.3472
“	-10.3482
▁exactly	-10.3495
▁host	-10.3495
▁Public	-10.3496
▁whatever	-10.35
▁older	-10.3502
ini	-10.3503
▁Dan	-10.3508
」	-10.3509
gun	-10.351
▁proof	-10.3512
來	-10.3517
▁views	-10.352
会	-10.352
▁Ch	-10.3522
▁grand	-10.353
ett	-10.3532
合	-10.3536
▁Under	-10.3539
▁Central	-10.354
▁Jerusalem	-10.3542
▁load	-10.3542
▁accurate	-10.3547
▁picture	-10.3552
▁commercial	-10.3553
▁laid	-10.3566
▁3,	-10.3568
level	-10.3572
IT	-10.3572
▁Ti	-10.3575
а	-10.3578
oy	-10.3586
▁School	-10.3589
▁Mon	-10.3592
ew	-10.3594
▁ver	-10.3594
▁Che	-10.3596
▁establish	-10.3597
lane	-10.36
な	-10.3604
▁au	-10.3607
▁Michael	-10.3609
▁Web	-10.361
▁corner	-10.3611
ken	-10.3613
▁mi	-10.3613
▁Es	-10.3614
▁reform	-10.3621
▁CIA	-10.3622
▁humanitarian	-10.3624
rt	-10.3626
Se	-10.3628
▁bodies	-10.363
▁environmental	-10.3631
▁depending	-10.3631
▁assault	-10.3634
▁merely	-10.3635
▁arrival	-10.3635
style	-10.3637
▁goods	-10.3638
bu	-10.3642
进行	-10.3645
▁afternoon	-10.3647
▁Green	-10.3649
ks	-10.3651
▁strike	-10.3652
▁tr	-10.3655
▁engagement	-10.3659
י	-10.366
`,	-10.3667
▁iron	-10.3669
source	-10.3682
▁aware	-10.3691
▁Where	-10.3692
▁authorities	-10.3697
med	-10.3697
▁institutions	-10.3698
▁Colonel	-10.3698
▁log	-10.3699
ants	-10.3706
▁ball	-10.3706
▁marked	-10.3707
▁node	-10.3718
▁differences	-10.3719
▁organizational	-10.3724
▁Elizabeth	-10.3725
▁scientific	-10.3725
▁edge	-10.3726
successfully	-10.3727
▁birth	-10.3733
ute	-10.3734
2019	-10.374
し	-10.3742
▁Clay	-10.3745
▁ed	-10.3749
CA	-10.3749
:**	-10.375
vers	-10.3751
▁cloud	-10.3753
▁experienced	-10.3758
▁kingdom	-10.3762
▁den	-10.3765
▁discuss	-10.3766
sur	-10.3766
▁naval	-10.3768
IC	-10.3771
▁remove	-10.3777
▁180	-10.3788
▁armies	-10.3789
Bo	-10.3792
▁Mor	-10.3793
which	-10.3795
ris	-10.3796
uff	-10.3796
ación	-10.3796
▁Nor	-10.3797
tle	-10.3805
specific	-10.3805
lic	-10.3806
ria	-10.381
tte	-10.3812
▁IN	-10.3813
cr	-10.3815
eth	-10.3819
数据	-10.3822
為	-10.3823
▁thou	-10.383
▁pa	-10.3832
ms	-10.3835
▁extra	-10.3835
▁notice	-10.3845
zz	-10.3846
▁belief	-10.3847
ans	-10.3847
▁commitment	-10.3848
▁dinner	-10.3854
▁hardly	-10.3856
▁await	-10.3858
▁int	-10.3859
▁Cambridge	-10.3861
▁represented	-10.3864
▁framework	-10.3865
ade	-10.3872
▁appears	-10.388
▁resource	-10.3883
ér	-10.3888
▁notes	-10.3889
▁Part	-10.3891
▁layer	-10.3895
William	-10.3897
▁Texas	-10.3899
▁communities	-10.3907
▁closed	-10.3927
▁existence	-10.3931
▁26	-10.3931
▁sister	-10.3932
▁38	-10.3946
▁Get	-10.3956
lf	-10.3963
▁radical	-10.3964
od	-10.3964
▁guard	-10.3965
▁compared	-10.3969
▁define	-10.397
ging	-10.3971
▁honor	-10.3976
range	-10.3977
ised	-10.3979
Error	-10.3983
zy	-10.3991
▁accounts	-10.3996
▁agree	-10.3999
▁temperature	-10.4003
▁forest	-10.4006
▁animals	-10.4006
▁smaller	-10.4007
▁Though	-10.4009
RO	-10.401
▁clients	-10.4014
▁contains	-10.4017
▁Prince	-10.4028
▁murder	-10.403
▁efficiency	-10.4035
▁bright	-10.4038
▁Group	-10.4038
▁sample	-10.4042
II	-10.405
▁skin	-10.405
yn	-10.4053
Ar	-10.4057
▁nine	-10.4057
▁formal	-10.4059
好	-10.4067
och	-10.4068
и	-10.4069
version	-10.4069
▁Napoleon	-10.407
▁storm	-10.407
▁industrial	-10.4078
▁budget	-10.4081
▁random	-10.4084
▁willing	-10.4086
▁concerned	-10.4087
▁Are	-10.409
ando	-10.4093
ition	-10.4095
ration	-10.4097
ä	-10.4101
▁located	-10.4103
▁42	-10.4106
start	-10.4106
▁units	-10.4107
▁records	-10.4111
▁destroyed	-10.4112
▁confusion	-10.4115
法	-10.4116
▁Par	-10.4117
▁variables	-10.4118
▁thy	-10.4119
▁largest	-10.4122
▁finding	-10.4123
eu	-10.4129
▁core	-10.4133
rich	-10.4145
point	-10.4146
▁perspective	-10.4147
stone	-10.4153
▁flight	-10.4153
▁Development	-10.4155
books	-10.4157
▁score	-10.4158
▁void	-10.4163
Oh	-10.4167
▁innovation	-10.4167
==	-10.4172
▁latter	-10.4175
yl	-10.4178
▁4:	-10.4182
▁talking	-10.4184
高	-10.4185
▁Ni	-10.4192
▁sc	-10.4192
▁chain	-10.4197
//	-10.4197
ray	-10.4199
▁suit	-10.4201
▁Key	-10.4201
▁cat	-10.4203
▁documents	-10.4203
lor	-10.4203
ais	-10.4203
▁Because	-10.4204
▁2021	-10.4204
▁che	-10.4207
▁mine	-10.4211
▁organized	-10.4212
▁via	-10.4214
ET	-10.4215
RAD	-10.4216
some	-10.4216
生	-10.4222
gy	-10.4223
提供	-10.4225
ming	-10.4228
▁committed	-10.4231
SI	-10.4231
▁sky	-10.4235
▁fish	-10.4236
▁intellectual	-10.4236
MA	-10.4237
▁drink	-10.4237
▁console	-10.4238
▁nations	-10.4241
ica	-10.4244
▁easier	-10.4248
▁widely	-10.4251
他	-10.4252
▁twelve	-10.4256
ons	-10.4257
▁Fort	-10.4258
For	-10.4262
▁dan	-10.4263
kh	-10.4263
FC	-10.4264
▁Mer	-10.4264
town	-10.4266
▁4,	-10.4267
▁domestic	-10.4268
▁finance	-10.4272
qui	-10.4274
▁sell	-10.428
▁connect	-10.4284
▁Stalin	-10.4289
three	-10.4291
▁applied	-10.4291
▁os	-10.4293
▁favor	-10.4299
air	-10.4304
▁opening	-10.4304
▁colonial	-10.4307
▁broad	-10.4307
▁Jack	-10.4308
▁till	-10.4308
▁novel	-10.4311
page	-10.4312
▁argued	-10.4313
ture	-10.4319
▁familiar	-10.432
▁regime	-10.4321
cur	-10.4321
AE	-10.4328
ola	-10.4328
▁num	-10.4329
▁van	-10.4329
mark	-10.433
xi	-10.4336
▁Sp	-10.4337
▁independence	-10.4342
▁dream	-10.4344
▁completed	-10.4345
vin	-10.4345
▁senior	-10.4349
EC	-10.435
scale	-10.4357
▁imp	-10.4359
first	-10.4362
nk	-10.4364
▁immediate	-10.4374
▁Open	-10.4377
度	-10.4377
▁Plan	-10.4377
▁mention	-10.438
script	-10.4383
▁principle	-10.4389
▁virtual	-10.439
▁eastern	-10.4391
AG	-10.4397
▁39	-10.4398
▁bomb	-10.4403
length	-10.4408
▁ChatGPT	-10.4412
continuous	-10.4413
▁agents	-10.442
▁playing	-10.4423
▁decades	-10.4424
France	-10.4425
자	-10.4427
▁narrow	-10.443
ux	-10.4434
▁default	-10.4435
▁transfer	-10.4436
▁drawn	-10.4437
ast	-10.4441
▁discussion	-10.4442
after	-10.4443
▁exercise	-10.4445
ité	-10.4447
ric	-10.4448
true	-10.4449
^	-10.4453
▁ga	-10.4455
▁Republican	-10.446
ari	-10.4476
家	-10.4476
▁enjoy	-10.4479
▁aspects	-10.4498
▁Cha	-10.4499
▁opposition	-10.4501
title	-10.4504
▁expressed	-10.4506
▁Bu	-10.451
Key	-10.451
▁Cal	-10.4511
By	-10.4511
▁remaining	-10.4515
▁catch	-10.4515
▁и	-10.4517
ender	-10.4517
▁onto	-10.4521
ory	-10.4522
▁climate	-10.4523
▁figures	-10.4523
▁recognized	-10.4525
Pa	-10.4526
▁volume	-10.4527
▁Chi	-10.4528
▁concern	-10.4529
nic	-10.4531
▁matters	-10.4532
▁prove	-10.4532
入	-10.4534
▁killing	-10.4536
▁rear	-10.4539
AS	-10.4539
▁Power	-10.454
▁transport	-10.4543
▁Je	-10.4553
▁eat	-10.4555
▁assistance	-10.4558
▁Latin	-10.4559
합니다	-10.4567
vy	-10.457
▁trained	-10.457
▁release	-10.4572
▁Also	-10.4576
kan	-10.4578
▁Pi	-10.4583
▁affairs	-10.4583
▁standards	-10.4586
으로	-10.4587
▁architecture	-10.4587
▁focused	-10.459
▁express	-10.4591
▁Il	-10.4593
▁)	-10.4593
▁Star	-10.46
ign	-10.4603
State	-10.4606
▁thick	-10.4607
▁convert	-10.4608
▁debate	-10.461
ax	-10.4617
▁в	-10.4618
▁Southern	-10.4619
▁IV	-10.4619
▁Anne	-10.4621
▁empty	-10.4621
But	-10.4625
▁Bank	-10.4627
▁ensuring	-10.4631
▁sir	-10.4631
▁alliance	-10.4632
bre	-10.4633
▁cap	-10.4636
uch	-10.4638
▁User	-10.4639
▁signed	-10.4639
▁Mc	-10.464
▁respond	-10.4641
city	-10.4644
▁Ga	-10.4645
▁pages	-10.4649
ski	-10.4657
▁wood	-10.4658
▁movie	-10.4659
▁looks	-10.4663
▁0;	-10.4663
▁programs	-10.4671
方法	-10.4673
▁fundamental	-10.4681
▁phase	-10.4681
▁carefully	-10.4682
▁profit	-10.4683
▁straight	-10.4686
▁competition	-10.4689
▁League	-10.4694
▁introduced	-10.4698
▁zu	-10.47
▁[1	-10.4704
▁limit	-10.4705
col	-10.4705
▁largely	-10.4706
▁destruction	-10.471
▁File	-10.4713
▁numerous	-10.4714
▁reduced	-10.4716
▁및	-10.4726
▁wave	-10.4728
ily	-10.4728
▁claims	-10.474
▁feelings	-10.474
place	-10.4742
iii	-10.4743
Fi	-10.475
▁card	-10.4753
▁ve	-10.4753
UR	-10.4758
mes	-10.4762
▁combined	-10.4762
▁package	-10.477
▁prime	-10.4771
▁adding	-10.478
del	-10.4781
▁Tra	-10.4786
▁suggests	-10.4788
▁touch	-10.4789
▁List	-10.4792
年	-10.4792
▁Mi	-10.4797
[0]	-10.48
▁divided	-10.4803
▁cur	-10.4804
▁unable	-10.4805
▁stream	-10.4817
▁schedule	-10.4817
▁GPT	-10.4818
zu	-10.482
▁remote	-10.4824
mont	-10.4828
▁drop	-10.4831
▁Security	-10.4831
▁deliver	-10.4832
▁cool	-10.4832
与	-10.4834
▁dear	-10.4836
ili	-10.4838
kk	-10.4838
▁sorry	-10.4842
AP	-10.4849
▁Truman	-10.485
▁analyze	-10.4851
▁Papers	-10.4851
▁Ja	-10.4851
pan	-10.4855
可能	-10.4859
▁fixed	-10.4865
▁announced	-10.4867
▁keeping	-10.487
▁prices	-10.4872
▁silver	-10.4878
hood	-10.4883
▁goes	-10.4887
era	-10.4888
elle	-10.4888
▁Minister	-10.4891
FA	-10.4892
▁dog	-10.4895
york	-10.4896
▁tradition	-10.4908
▁Davis	-10.4908
])	-10.491
▁asking	-10.4915
▁bottom	-10.4916
▁returns	-10.4916
▁ju	-10.4918
▁messages	-10.4921
▁arguments	-10.4922
mu	-10.4928
▁thoughts	-10.493
▁recently	-10.4934
top	-10.4936
ash	-10.4937
д	-10.4937
▁shift	-10.4937
▁turning	-10.4942
▁crime	-10.4943
Mar	-10.4943
nu	-10.4947
amp	-10.495
▁depend	-10.4957
▁headquarters	-10.4958
({	-10.496
▁punishment	-10.4961
я	-10.4965
對	-10.4965
▁soft	-10.4966
▁calling	-10.4967
▁plant	-10.4969
▁Saint	-10.4971
▁inform	-10.4971
bin	-10.4972
ulation	-10.4976
▁Nazi	-10.4979
▁li	-10.4981
wn	-10.4986
▁tone	-10.4986
▁Force	-10.4988
▁happen	-10.499
▁trading	-10.4994
▁Secretary	-10.4995
▁200	-10.4999
▁Har	-10.5
▁positions	-10.5004
▁species	-10.5011
▁occurred	-10.5016
▁aircraft	-10.5019
▁expedition	-10.5019
▁rates	-10.502
▁mobile	-10.502
▁removed	-10.502
▁Gutenberg	-10.5024
▁Muslim	-10.5025
▁Major	-10.5032
▁um	-10.5036
rit	-10.504
您	-10.5041
hy	-10.5045
tan	-10.5045
▁County	-10.5047
ía	-10.5049
";	-10.5054
▁refer	-10.5057
▁Using	-10.5059
▁ré	-10.5059
▁Te	-10.5063
▁appeal	-10.5064
▁loved	-10.5064
bit	-10.5065
word	-10.5066
▁blow	-10.5068
▁involve	-10.507
CO	-10.5072
ani	-10.5073
ban	-10.5074
last	-10.5074
▁engine	-10.5075
eight	-10.5076
▁ice	-10.5077
해	-10.5077
Un	-10.5078
▁quarter	-10.5079
▁apart	-10.508
▁forth	-10.5081
pr	-10.5081
▁secretary	-10.5085
▁drew	-10.5086
▁App	-10.5087
▁appointment	-10.5089
las	-10.509
▁Ba	-10.509
nce	-10.5091
UN	-10.5097
update	-10.5097
▁infantry	-10.5099
There	-10.5099
▁Bre	-10.5099
room	-10.5099
▁wonder	-10.5099
▁capacity	-10.5105
NA	-10.5108
▁hat	-10.511
Qu	-10.5112
▁communicate	-10.5113
és	-10.5118
▁extent	-10.5121
▁Parliament	-10.5124
量	-10.5129
dic	-10.5133
▁lose	-10.5133
gan	-10.5135
à	-10.5139
▁Work	-10.5139
▁accuracy	-10.5139
▁engage	-10.5141
▁Wood	-10.5141
▁speaking	-10.5142
tel	-10.5149
▁Bill	-10.5151
▁recalled	-10.5153
ano	-10.5155
ras	-10.5166
▁soil	-10.5169
▁pan	-10.517
rick	-10.5171
▁occasion	-10.5171
▁avec	-10.5172
▁seeking	-10.5174
▁identified	-10.5175
▁calculate	-10.5176
▁logic	-10.518
▁Check	-10.5182
名	-10.5184
ving	-10.5184
▁conference	-10.5184
cho	-10.5188
▁auto	-10.5188
▁loop	-10.5189
▁11.	-10.5191
▁farm	-10.5197
sub	-10.5199
▁begun	-10.5204
多	-10.5205
▁issued	-10.5206
▁Three	-10.5206
▁engaged	-10.5208
例如	-10.5209
ben	-10.521
load	-10.5216
▁managing	-10.5216
▁players	-10.5216
IP	-10.5218
▁disaster	-10.522
▁motion	-10.522
▁offering	-10.5222
▁showing	-10.5225
▁boys	-10.5228
ient	-10.5229
ison	-10.5231
dir	-10.5233
▁Lieutenant	-10.5234
▁requests	-10.5235
▁reign	-10.5238
án	-10.524
Mi	-10.5242
tru	-10.5247
ple	-10.5251
▁attacked	-10.5254
с	-10.5255
▁highest	-10.5255
▁Egyptian	-10.5262
▁visual	-10.5263
▁dataset	-10.5266
▁committee	-10.5267
▁Next	-10.5275
pen	-10.5278
▁supposed	-10.5283
物	-10.5287
TS	-10.5288
hand	-10.5289
▁seeing	-10.5289
方	-10.529
▁teams	-10.529
▁module	-10.5295
▁realized	-10.5297
어	-10.5299
▁Die	-10.5302
TE	-10.5312
▁cup	-10.5314
CH	-10.5314
▁represents	-10.5314
▁watched	-10.5316
▁desired	-10.5316
OM	-10.5318
▁sets	-10.5323
▁Australia	-10.5325
▁43	-10.5326
▁carrying	-10.5329
▁Ru	-10.5331
▁mar	-10.5331
ara	-10.5331
▁spiritual	-10.5333
▁otherwise	-10.5334
▁fo	-10.5334
cus	-10.5337
▁TR	-10.534
▁fate	-10.5342
▁Apply	-10.5346
▁harm	-10.5346
images	-10.5351
result	-10.536
▁encourage	-10.5367
▁columns	-10.5369
String	-10.537
▁slowly	-10.5371
▁44	-10.5372
▁Library	-10.5381
▁Far	-10.5385
:23.	-10.5386
its	-10.5387
▁emotions	-10.5396
▁qu	-10.5399
▁rank	-10.5405
tain	-10.5406
Or	-10.5408
▁st	-10.5408
▁formula	-10.541
Text	-10.5417
2)	-10.5422
order	-10.5427
▁fuel	-10.5432
▁pieces	-10.5438
▁entry	-10.5441
node	-10.5441
▁Valley	-10.5442
▁retreat	-10.5443
As	-10.5444
Of	-10.5448
▁sweet	-10.5452
born	-10.5454
▁tra	-10.5458
▁37	-10.5459
▁buildings	-10.546
og	-10.546
run	-10.5466
▁latest	-10.5466
view	-10.5467
▁allies	-10.5476
▁fill	-10.5477
▁mountain	-10.5481
▁male	-10.5486
▁};	-10.5489
▁patients	-10.5489
▁concepts	-10.5489
▁assist	-10.549
ets	-10.5492
▁Book	-10.5494
lay	-10.5495
▁colonies	-10.5496
EAB	-10.5496
▁evil	-10.5502
box	-10.5504
▁Ve	-10.5507
▁Grand	-10.5512
lie	-10.5512
▁solve	-10.5513
▁interesting	-10.5527
▁translation	-10.5528
▁connected	-10.553
tm	-10.553
▁Andrew	-10.5537
▁sitting	-10.554
▁mark	-10.5545
▁surprise	-10.5547
▁0,	-10.5551
▁None	-10.5552
▁12.	-10.5553
Ba	-10.5557
AQACEQM	-10.5558
▁Age	-10.5558
▁settled	-10.5558
▁desert	-10.556
▁rock	-10.5562
fully	-10.5562
▁appointed	-10.5564
する	-10.5566
▁min	-10.5568
▁tend	-10.5569
▁achieved	-10.557
Vi	-10.5571
▁Home	-10.5575
▁pretty	-10.558
▁survey	-10.5581
▁relief	-10.5582
▁settlement	-10.5588
▁tall	-10.5588
▁cash	-10.5599
▁silence	-10.5599
▁subjects	-10.5601
put	-10.5605
▁Poland	-10.561
▁newspaper	-10.5617
▁decide	-10.5618
▁lord	-10.5619
▁passing	-10.5619
▁Vietnam	-10.5623
▁41	-10.5626
▁leg	-10.5627
oon	-10.5629
Go	-10.5629
▁quiet	-10.5631
▁smoke	-10.5636
▁selected	-10.5636
▁pulled	-10.5636
Value	-10.5642
AAwD	-10.5642
▁Los	-10.5642
▁fifteen	-10.5642
▁warning	-10.5644
▁female	-10.5644
▁Wall	-10.5648
而	-10.5648
▁recognition	-10.5654
▁upper	-10.5658
white	-10.5658
▁usual	-10.5662
▁severe	-10.5663
▁alive	-10.5663
▁Report	-10.5664
▁hoped	-10.5666
ked	-10.5671
▁root	-10.5671
▁remembered	-10.5675
▁deck	-10.5675
▁Big	-10.5677
american	-10.568
시	-10.5686
▁hall	-10.5688
更	-10.569
EE	-10.569
▁gi	-10.5692
▁std	-10.5694
▁waste	-10.5694
▁ni	-10.5695
▁supplies	-10.5697
▁clothes	-10.5699
▁Irish	-10.57
nch	-10.5704
一個	-10.5713
▁recorded	-10.5715
▁follows	-10.5716
▁engaging	-10.5718
▁fa	-10.5721
▁visited	-10.5722
PI	-10.5722
▁changing	-10.5723
▁Association	-10.5724
▁resolution	-10.5725
▁encounter	-10.5726
serv	-10.5729
ware	-10.5734
▁click	-10.5734
▁papers	-10.5736
▁metal	-10.574
gra	-10.5745
▁smart	-10.5745
contents	-10.5749
Up	-10.575
sum	-10.5752
▁pu	-10.5752
▁mode	-10.5753
▁Massachusetts	-10.5755
fo	-10.5757
hen	-10.5765
这	-10.5767
dr	-10.577
SP	-10.5771
▁specified	-10.5773
▁missing	-10.5774
How	-10.5774
▁symbol	-10.5776
▁pick	-10.578
в	-10.5781
▁chosen	-10.5781
▁sh	-10.5782
/1	-10.5784
▁Ten	-10.5786
▁creative	-10.5789
ico	-10.5789
▁possibility	-10.5794
▁Those	-10.5795
Su	-10.5797
▁comp	-10.5799
card	-10.5801
▁1990	-10.5803
▁relatively	-10.5805
사	-10.5806
▁directory	-10.5808
CS	-10.5814
▁hotel	-10.5817
▁Daniel	-10.5817
▁pleasure	-10.5817
▁mo	-10.582
200	-10.5821
▁lands	-10.5822
▁operating	-10.5825
▁storage	-10.5831
dan	-10.5833
▁expert	-10.5836
▁saved	-10.5843
▁res	-10.5848
▁representation	-10.5851
▁cavalry	-10.5854
▁collaboration	-10.5857
中的	-10.586
▁released	-10.5864
▁explanation	-10.5866
gh	-10.5868
▁plain	-10.5869
▁frequently	-10.5871
BY	-10.5873
▁considerable	-10.5875
ces	-10.5878
▁deeply	-10.5881
▁Sub	-10.5882
▁railroad	-10.5883
▁Eastern	-10.5889
▁80	-10.5889
▁suffering	-10.5893
▁estate	-10.5895
▁massive	-10.5895
▁integration	-10.5896
▁Oh	-10.5901
「	-10.5903
FR	-10.5904
ose	-10.5907
▁hidden	-10.5908
App	-10.5908
uck	-10.591
▁dry	-10.591
Time	-10.5911
▁item	-10.5913
▁liberal	-10.5914
▁reply	-10.5914
▁Human	-10.5918
其	-10.5918
UE	-10.5919
時	-10.5921
cia	-10.5928
▁Design	-10.5933
▁rising	-10.5934
▁snow	-10.5935
▁describes	-10.5936
▁contain	-10.594
▁taste	-10.5944
▁90	-10.5944
ama	-10.5945
▁gained	-10.5945
▁spend	-10.5945
aire	-10.5949
].	-10.595
▁vous	-10.595
▁surrounding	-10.5952
Pro	-10.5954
▁70	-10.5954
AH	-10.596
手	-10.5962
▁camera	-10.5962
▁er	-10.5969
▁solid	-10.5969
▁errors	-10.597
VI	-10.597
▁factor	-10.5972
▁gathered	-10.5974
▁Sc	-10.5976
▁48	-10.5977
▁college	-10.5977
▁farmers	-10.598
▁Arab	-10.5981
Hu	-10.5983
▁joy	-10.5985
▁chair	-10.5988
▁shore	-10.5992
▁convention	-10.5995
▁promised	-10.5996
cul	-10.5997
自	-10.6001
▁landing	-10.6006
ib	-10.6006
They	-10.6009
ye	-10.601
▁academic	-10.601
▁becomes	-10.6011
▁Early	-10.6012
▁treaty	-10.6012
ston	-10.6012
vector	-10.6013
▁articles	-10.6015
▁2020	-10.6019
▁treated	-10.6022
($	-10.6026
▁ba	-10.6028
▁Define	-10.603
QQ	-10.6032
mor	-10.6033
▁Scott	-10.6041
▁outcomes	-10.6041
▁skill	-10.6041
ering	-10.6042
▁ultimately	-10.6043
ites	-10.6043
ala	-10.6045
▁flag	-10.6047
▁replace	-10.6047
▁sick	-10.6048
ult	-10.6054
▁symptoms	-10.606
▁End	-10.606
▁с	-10.6061
fu	-10.6061
▁judgment	-10.6062
▁Indeed	-10.6062
事	-10.6062
▁sand	-10.6063
ora	-10.6064
▁artillery	-10.6065
▁capable	-10.6072
▁ob	-10.6075
▁calls	-10.6081
▁Test	-10.6083
▁historians	-10.6084
uc	-10.6089
▁TO	-10.609
스	-10.6099
▁Sun	-10.61
aries	-10.6101
▁Corps	-10.6105
▁ride	-10.6109
oADAMBAAIRAxEAPw	-10.6113
CR	-10.6117
▁5,	-10.6118
▁aspect	-10.6119
dia	-10.612
▁sending	-10.6123
▁entre	-10.6126
ME	-10.6127
▁reaction	-10.6131
▁Jesus	-10.6145
感	-10.6147
▁apologize	-10.6148
rat	-10.6149
▁Emperor	-10.6151
▁Every	-10.6152
▁dropped	-10.6153
atory	-10.6156
▁null	-10.6156
▁College	-10.6157
▁expansion	-10.6158
Na	-10.6164
▁Jacob	-10.6175
ced	-10.6178
sy	-10.6181
▁[]}	-10.6182
▁occupation	-10.6184
lon	-10.6184
inter	-10.6184
bel	-10.6185
http	-10.6186
▁float	-10.6187
site	-10.6188
OP	-10.6188
▁fix	-10.6191
▁beauty	-10.6195
▁frontier	-10.6197
▁discussed	-10.6197
▁driven	-10.62
▁Ke	-10.6207
vol	-10.6208
▁promise	-10.6212
▁bin	-10.6212
▁urban	-10.622
▁writer	-10.6221
▁owner	-10.6228
color	-10.6228
▁occupied	-10.6229
▁prop	-10.6229
▁Point	-10.6229
▁Miss	-10.6232
▁contribute	-10.6233
▁ke	-10.6234
▁partner	-10.6235
eau	-10.6242
▁extended	-10.6245
▁worst	-10.6252
SC	-10.6255
SM	-10.6255
▁Consider	-10.626
▁divisions	-10.6262
gate	-10.6262
rm	-10.6266
本	-10.6266
▁ra	-10.6267
▁label	-10.627
▁towns	-10.627
▁46	-10.6271
か	-10.6282
▁manager	-10.6283
▁session	-10.6285
▁hundreds	-10.6285
▁definition	-10.6286
ls	-10.6288
▁Duke	-10.6288
ded	-10.6292
▁retrieval	-10.6293
bed	-10.6298
ane	-10.6299
▁vector	-10.6302
▁throw	-10.6305
▁markets	-10.6306
▁expertise	-10.6307
▁Economic	-10.6312
▁fe	-10.6312
wer	-10.6317
▁relative	-10.6317
▁pair	-10.632
▁previously	-10.6325
▁Democratic	-10.6326
▁Little	-10.6326
▁hospital	-10.6333
▁rapidly	-10.6334
▁nineteenth	-10.6336
▁fashion	-10.6336
▁modify	-10.6342
who	-10.6344
▁Er	-10.6344
group	-10.6345
▁answered	-10.6347
Ka	-10.6352
lam	-10.6355
Ag	-10.6359
這	-10.636
▁Search	-10.6361
free	-10.6366
ン	-10.6367
▁adapt	-10.6368
▁closely	-10.6372
▁Canada	-10.6373
ella	-10.6374
▁Sal	-10.6376
▁Pan	-10.6377
▁hero	-10.6378
▁Perhaps	-10.6382
▁capabilities	-10.6387
▁dance	-10.639
▁successfully	-10.6391
ese	-10.6396
tur	-10.6396
lle	-10.6401
▁String	-10.6403
▁reflect	-10.6404
▁VI	-10.6409
Yes	-10.6412
▁song	-10.6413
▁Pope	-10.6417
encia	-10.6419
▁historian	-10.6421
▁regarded	-10.6424
File	-10.643
▁comment	-10.6431
▁1960	-10.6431
={	-10.6435
新	-10.6437
▁regard	-10.6439
ock	-10.6446
▁platforms	-10.6446
▁75	-10.6449
▁truly	-10.6451
ld	-10.6454
▁Therefore	-10.6454
▁Jan	-10.6456
▁Mal	-10.6457
▁managers	-10.6463
▁banks	-10.6465
▁convinced	-10.6468
▁palace	-10.647
▁unless	-10.647
▁formation	-10.6472
▁recognize	-10.6473
▁satisfaction	-10.6475
▁guidance	-10.6475
▁delivered	-10.6477
▁incident	-10.6481
ert	-10.6482
▁outcome	-10.6483
▁drawing	-10.6484
▁apparently	-10.6484
ele	-10.6487
▁fired	-10.6489
▁Moscow	-10.649
ui	-10.6493
ス	-10.6499
lock	-10.6499
▁Ber	-10.6507
▁nearby	-10.6509
▁landscape	-10.6514
▁seat	-10.6515
点	-10.6516
▁employee	-10.6525
▁push	-10.6527
LI	-10.6527
button	-10.6528
wo	-10.6528
†	-10.6531
six	-10.6537
学	-10.6541
▁noise	-10.6545
▁sharp	-10.6547
▁generated	-10.6547
▁boats	-10.6549
▁pd	-10.6549
將	-10.6559
▁planned	-10.656
▁Out	-10.656
▁superior	-10.656
▁movements	-10.656
▁Okay	-10.6561
▁5:	-10.6562
pl	-10.6566
sky	-10.6568
▁weak	-10.6569
▁bringing	-10.6572
▁Bra	-10.6572
▁regarding	-10.6572
▁configuration	-10.6573
stein	-10.6575
▁cu	-10.6576
▁guess	-10.6581
gn	-10.6582
▁depth	-10.6587
與	-10.6588
▁opposite	-10.6589
▁sexual	-10.6589
▁gives	-10.6591
max	-10.6592
ators	-10.6592
env	-10.6594
▁1)	-10.6594
▁2023	-10.6594
被	-10.6601
▁Pennsylvania	-10.6602
▁healthy	-10.6607
▁0.0	-10.6611
▁Mu	-10.6612
▁improved	-10.6613
▁responses	-10.6615
ij	-10.6618
Sp	-10.6621
ena	-10.6624
▁JSON	-10.6625
True	-10.6628
That	-10.6628
had	-10.6634
▁pointed	-10.6635
sive	-10.6635
create	-10.6637
▁Ph	-10.6637
▁assets	-10.6638
▁terrible	-10.6642
▁ti	-10.665
▁ring	-10.6651
体	-10.6651
我们	-10.6654
理	-10.6655
▁Reich	-10.6657
created	-10.6657
ú	-10.6661
▁sword	-10.6662
▁healthcare	-10.6664
User	-10.6671
▁agency	-10.6675
())	-10.6676
▁repair	-10.6676
表	-10.668
▁hearing	-10.6682
▁networks	-10.6682
▁closer	-10.6684
▁animal	-10.6689
▁telling	-10.6692
▁extension	-10.6693
▁hu	-10.6695
▁adopted	-10.6698
▁unknown	-10.6698
▁diverse	-10.67
▁Federal	-10.67
uv	-10.67
▁lie	-10.6701
▁driving	-10.6702
ami	-10.6704
▁Cat	-10.6705
▁Iraq	-10.6711
300	-10.6717
і	-10.6722
▁offensive	-10.6723
▁reducing	-10.6724
▁150	-10.6725
▁difficulty	-10.6726
EA	-10.6732
itude	-10.6733
▁vital	-10.6738
▁abandoned	-10.6739
▁sta	-10.6741
▁impression	-10.6751
"]}	-10.6753
▁Commission	-10.6759
▁surrender	-10.6759
related	-10.6762
ante	-10.6763
▁emerged	-10.6764
▁enjoyed	-10.6767
1',	-10.6768
▁objective	-10.6776
▁ocean	-10.678
▁extreme	-10.6782
▁council	-10.6789
▁schools	-10.679
▁ter	-10.6794
▁opposed	-10.6796
▁enormous	-10.6797
his	-10.6797
▁enable	-10.6801
▁infrastructure	-10.6802
▁47	-10.6805
▁df	-10.6808
▁Shi	-10.681
▁obvious	-10.6811
NC	-10.6816
bash	-10.6817
▁valid	-10.6817
心	-10.6819
256	-10.6822
▁Vol	-10.6824
ito	-10.6826
▁wine	-10.6827
▁breath	-10.6829
▁possibly	-10.683
▁thin	-10.6831
seven	-10.6835
▁Gi	-10.684
:22.	-10.6842
▁narrative	-10.6844
water	-10.6844
▁Val	-10.6845
▁resulting	-10.6845
LY	-10.6847
前	-10.6851
▁monitor	-10.6851
▁Polish	-10.6854
▁Provide	-10.6861
▁Historical	-10.6862
▁causes	-10.6865
▁prepare	-10.6867
▁Port	-10.6873
ense	-10.6873
lip	-10.6874
▁Pat	-10.6874
▁launched	-10.6874
ack	-10.6875
▁quantum	-10.6878
▁phrase	-10.6878
▁mountains	-10.6882
ona	-10.6883
▁Clark	-10.6885
CP	-10.6888
▁anxiety	-10.6889
▁helpful	-10.689
cut	-10.689
PC	-10.6891
lé	-10.6892
rie	-10.6893
tern	-10.6895
▁Marines	-10.6897
▁properly	-10.6897
▁prominent	-10.6898
▁improvement	-10.6904
▁lu	-10.6904
ida	-10.691
▁replaced	-10.691
DA	-10.6912
▁stick	-10.6915
FS	-10.6918
east	-10.6918
Well	-10.6919
ا	-10.692
you	-10.6921
▁structures	-10.6923
▁maintaining	-10.6924
▁Marshall	-10.6925
▁transaction	-10.6925
▁Philadelphia	-10.6927
▁ought	-10.693
▁Samuel	-10.6932
▁dollars	-10.6937
▁prior	-10.6938
▁demanded	-10.6939
▁electronic	-10.6941
▁Francisco	-10.6944
▁MA	-10.6944
▁beliefs	-10.6946
ira	-10.6957
▁purposes	-10.6959
▁sounds	-10.696
▁Anti	-10.6961
▁regulations	-10.6964
定	-10.6965
Br	-10.6965
▁engineering	-10.6965
▁rep	-10.6969
▁Sunday	-10.6969
인	-10.6971
▁1980	-10.6972
▁mood	-10.6975
TA	-10.6977
▁criminal	-10.6979
▁sequence	-10.6981
▁wear	-10.6984
((	-10.6987
eo	-10.6987
▁welcome	-10.6988
▁Harry	-10.699
▁Ku	-10.699
▁defend	-10.699
ei	-10.6991
▁signs	-10.6991
▁quoted	-10.6993
▁jobs	-10.6993
可	-10.6994
step	-10.6996
▁на	-10.7
▁decade	-10.7002
▁wire	-10.7004
▁2022	-10.7007
▁chose	-10.701
▁Information	-10.7011
▁->	-10.702
▁hi	-10.702
javascript	-10.7023
ific	-10.7024
▁rapid	-10.7025
pel	-10.7026
▁Still	-10.7027
▁garden	-10.7029
unit	-10.703
▁Up	-10.7032
▁origin	-10.7035
▁programming	-10.7038
▁launch	-10.7039
▁Order	-10.7039
ł	-10.7044
▁delivery	-10.7046
▁permission	-10.7047
Flag	-10.7054
▁predict	-10.7056
▁chat	-10.7056
pos	-10.706
ios	-10.7061
▁adjust	-10.7061
▁insisted	-10.7062
)]	-10.7062
▁ro	-10.7062
Ed	-10.7063
▁Protestant	-10.7065
▁pot	-10.7067
▁在	-10.7069
mat	-10.7071
▁Lake	-10.7072
ros	-10.7073
▁corps	-10.7074
most	-10.7076
burg	-10.7077
NN	-10.7082
▁helping	-10.7084
iel	-10.7089
▁49	-10.7091
▁Qu	-10.7099
▁55	-10.7099
▁colleagues	-10.7103
▁500	-10.711
▁profile	-10.7117
▁Confederate	-10.7118
▁corporate	-10.7121
char	-10.7122
▁Islam	-10.7122
CD	-10.7124
▁Enhanced	-10.713
message	-10.7131
▁Northern	-10.7138
▁god	-10.7139
▁regions	-10.7142
eh	-10.7144
▁discipline	-10.7145
▁React	-10.7148
cl	-10.7151
▁comfort	-10.7153
OL	-10.7153
IL	-10.7158
▁Given	-10.7161
being	-10.7161
▁essay	-10.7163
▁switch	-10.7163
會	-10.7165
spec	-10.7166
▁flat	-10.7166
hard	-10.717
▁revealed	-10.7171
DE	-10.7174
▁Constitution	-10.7174
▁Foreign	-10.7181
▁178	-10.7182
▁Za	-10.7184
▁equally	-10.7184
▁experiment	-10.7188
並	-10.719
▁Khan	-10.719
+1	-10.7193
▁]	-10.7196
▁fu	-10.72
=1","	-10.72
▁assigned	-10.7204
▁cried	-10.7205
redlink	-10.7206
▁drove	-10.7208
▁editor	-10.7215
▁scope	-10.7218
mos	-10.7219
Th	-10.7219
tis	-10.722
mail	-10.7221
▁privacy	-10.7222
▁assistant	-10.7222
▁Earth	-10.7223
▁scholars	-10.7224
▁draft	-10.7224
▁controlled	-10.7228
\*	-10.7229
▁glad	-10.7229
▁tour	-10.723
▁candidate	-10.7231
ali	-10.7232
▁Austria	-10.7233
play	-10.7238
▁obtain	-10.7238
▁Code	-10.724
▁Center	-10.7241
GO	-10.7242
PA	-10.7244
states	-10.7246
fit	-10.725
▁retrieve	-10.7252
dom	-10.7257
ram	-10.7259
gel	-10.7262
▁consistent	-10.7266
▁Communist	-10.7266
▁valley	-10.7267
ble	-10.7267
▁Ab	-10.7268
ered	-10.7269
▁civilization	-10.7277
View	-10.7279
о	-10.7279
NE	-10.7282
QR	-10.7284
LL	-10.7286
▁approaches	-10.7289
ball	-10.729
▁Ju	-10.729
NS	-10.729
▁loyalty	-10.7291
▁Admiral	-10.7292
5%	-10.7295
▁ri	-10.7298
▁Take	-10.7299
▁passion	-10.7302
▁split	-10.7303
▁accident	-10.7303
▁answers	-10.7305
▁interpretation	-10.7306
▁sharing	-10.7308
mel	-10.7308
pin	-10.7309
▁cre	-10.731
▁cor	-10.7311
▁elected	-10.7312
Di	-10.7313
EF	-10.7315
gre	-10.7318
▁plane	-10.7321
▁Russians	-10.7324
▁lady	-10.7328
▁ent	-10.733
н	-10.7333
▁sons	-10.7334
▁Allied	-10.7339
▁Free	-10.734
sha	-10.7341
mus	-10.7345
▁trends	-10.7347
▁weapon	-10.7347
other	-10.7348
Cl	-10.7348
▁taught	-10.7349
서	-10.7351
▁graph	-10.7352
▁mu	-10.7355
▁delay	-10.7355
▁Marine	-10.7355
▁Cloud	-10.7355
▁demands	-10.7357
JB	-10.7362
iter	-10.7366
how	-10.7369
▁restaurant	-10.7369
▁noble	-10.737
▁youth	-10.7371
Ca	-10.7374
▁mere	-10.7376
學	-10.7379
frame	-10.7382
▁interact	-10.7383
▁destroy	-10.7385
▁vary	-10.7386
▁RE	-10.7388
▁excellent	-10.739
die	-10.739
Ne	-10.7392
▁universe	-10.7392
▁glass	-10.7397
▁1999	-10.7404
▁tests	-10.7406
▁concluded	-10.7406
▁investigation	-10.7408
▁crossed	-10.7409
▁filter	-10.7412
▁performed	-10.7413
LA	-10.7414
▁6:	-10.7415
oli	-10.7417
▁favorite	-10.7417
Date	-10.7421
token	-10.7422
▁cells	-10.7424
▁Native	-10.7424
▁그	-10.7424
▁Third	-10.743
mil	-10.7431
real	-10.7434
▁executive	-10.7435
▁personality	-10.7436
AF	-10.7437
▁pride	-10.7439
EM	-10.744
▁51	-10.744
cker	-10.7441
▁minute	-10.7443
kt	-10.7445
数	-10.7445
▁founded	-10.7446
▁aaa	-10.7446
UF	-10.7451
acy	-10.7453
▁Road	-10.7454
▁hill	-10.7455
vid	-10.7456
▁absence	-10.7458
”—	-10.7462
mpl	-10.7462
▁discovery	-10.7466
▁thanks	-10.7467
▁Introduction	-10.7468
▁calm	-10.7468
▁protest	-10.7468
▁terror	-10.7469
动	-10.7471
▁13.	-10.7472
▁voyage	-10.7473
uring	-10.7478
▁smile	-10.7478
▁dress	-10.7479
▁defeated	-10.7482
lio	-10.7484
include	-10.7484
▁Shakespeare	-10.7485
▁Semantic	-10.7488
▁Gal	-10.7493
▁philosophy	-10.7493
non	-10.7494
Da	-10.7497
UM	-10.7498
성	-10.75
▁newly	-10.7504
▁throne	-10.7505
▁exact	-10.7513
▁mostly	-10.7513
FF	-10.7516
▁6,	-10.752
▁heads	-10.7521
▁bought	-10.7521
▁discover	-10.7523
▁sixty	-10.7525
ening	-10.7526
](	-10.7528
▁commission	-10.7529
cz	-10.753
▁2001	-10.7534
▁bread	-10.7535
EL	-10.7536
▁foundation	-10.7536
▁affected	-10.7545
▁cancer	-10.7547
South	-10.7549
▁centre	-10.755
它	-10.755
▁heavily	-10.7557
▁52	-10.7558
ace	-10.7558
▁shop	-10.7558
▁debt	-10.7559
General	-10.7562
burn	-10.7562
▁younger	-10.7571
▁1970	-10.7571
▁walking	-10.7574
▁triumph	-10.7576
▁fruit	-10.7578
▁refers	-10.7579
▁channel	-10.7583
té	-10.7583
▁Kennedy	-10.7588
▁conquest	-10.7593
▁Meanwhile	-10.7595
▁monitoring	-10.7597
▁referred	-10.7603
得	-10.7604
▁ethical	-10.7605
▁Among	-10.7608
ington	-10.7613
▁attempts	-10.7615
BS	-10.7617
print	-10.7618
▁girls	-10.7618
▁circle	-10.7618
Ru	-10.7622
▁bo	-10.7626
字	-10.7626
▁wa	-10.7626
▁threatened	-10.7627
▁resolve	-10.7627
▁parallel	-10.7628
ave	-10.763
▁park	-10.7634
nz	-10.7635
▁Institute	-10.7635
▁Sta	-10.7635
▁elite	-10.7636
▁preferences	-10.7639
드	-10.7639
▁thank	-10.764
mini	-10.7642
IM	-10.7642
▁occur	-10.7647
init	-10.7648
ati	-10.7649
▁Building	-10.7656
–18	-10.7657
▁repeated	-10.7658
▁transformation	-10.766
▁stakeholders	-10.766
aud	-10.7665
lm	-10.7668
▁2019	-10.7669
▁games	-10.767
TO	-10.7671
▁union	-10.7672
▁Douglas	-10.768
▁Any	-10.7681
Gu	-10.7684
▁forget	-10.7687
▁sudden	-10.7691
ages	-10.7692
問題	-10.7692
▁substance	-10.7694
▁succeeded	-10.7698
Fx	-10.7699
Car	-10.7703
▁Health	-10.7704
▁enterprise	-10.7704
▁judge	-10.7705
▁pull	-10.7706
▁afraid	-10.7707
▁Arthur	-10.7708
▁echo	-10.7708
-12	-10.7708
▁bold	-10.7713
▁Which	-10.7714
▁roll	-10.7724
個	-10.7725
▁craft	-10.7726
▁max	-10.7726
▁Columbus	-10.7726
▁battalion	-10.7729
BC	-10.7733
▁Christmas	-10.7734
▁aim	-10.7737
▁<<	-10.7737
0%	-10.7738
▁mon	-10.774
▁Jr	-10.7741
▁director	-10.7742
▁Stephen	-10.7742
▁1914	-10.7744
score	-10.7745
ular	-10.7746
▁salt	-10.7748
James	-10.7749
▁Gar	-10.7757
▁Wa	-10.7758
▁directed	-10.7759
▁racial	-10.7763
▁twice	-10.777
▁182	-10.777
▁Holy	-10.7771
▁transition	-10.7771
5,000	-10.7771
▁Cre	-10.7774
▁Field	-10.7774
▁sufficient	-10.7774
▁beat	-10.7775
▁paragraph	-10.7776
Service	-10.7778
even	-10.778
▁Moreover	-10.7781
IV	-10.7781
oz	-10.7786
▁Governor	-10.7791
▁gar	-10.7796
link	-10.7797
aging	-10.7798
▁camps	-10.7799
▁Convention	-10.7799
▁Commons	-10.78
▁Keep	-10.7804
▁Based	-10.7804
▁improving	-10.7805
▁Four	-10.7807
▁survive	-10.7807
ps	-10.7809
lot	-10.7812
▁Answer	-10.7812
▁department	-10.7812
hn	-10.7814
▁NOT	-10.7814
take	-10.7818
▁ordinary	-10.782
▁Bridge	-10.7821
▁losses	-10.7822
ym	-10.7822
▁specifically	-10.7825
▁Museum	-10.7826
▁granted	-10.7827
▁employed	-10.7833
一些	-10.7834
▁objectives	-10.7836
▁compliance	-10.7836
ied	-10.7838
▁Table	-10.7839
los	-10.7844
400	-10.7845
Lo	-10.785
▁Certainly	-10.7852
▁handling	-10.7852
Bu	-10.7853
▁ye	-10.7861
rand	-10.7862
▁colony	-10.7864
▁meat	-10.7865
▁knowing	-10.7866
▁Georgia	-10.7866
OC	-10.7867
stan	-10.7867
▁Jones	-10.7868
▁Within	-10.7868
▁inspired	-10.7869
分析	-10.787
▁53	-10.787
bell	-10.7874
▁Christians	-10.7876
▁transportation	-10.7881
▁warfare	-10.7881
▁7,	-10.7881
▁carbon	-10.7882
ancy	-10.7886
▁selection	-10.7889
期	-10.789
[]	-10.7895
▁blacks	-10.7898
如	-10.7898
▁complexity	-10.7899
PR	-10.79
▁Ottoman	-10.79
rus	-10.7902
▁branch	-10.7903
▁magazine	-10.7904
life	-10.7905
▁somewhat	-10.7911
▁assumed	-10.7917
▁artificial	-10.7918
▁heaven	-10.7918
▁pushed	-10.7918
hill	-10.7919
matic	-10.7921
▁commanders	-10.7924
▁Taylor	-10.7925
▁parameters	-10.7928
George	-10.7932
▁164	-10.7938
your	-10.7943
▁proposal	-10.7944
▁True	-10.7946
▁scheme	-10.7947
▁maximum	-10.7948
▁Ger	-10.7953
general	-10.7957
▁Mediterranean	-10.7958
ato	-10.7959
foot	-10.7961
▁household	-10.7961
cap	-10.7962
▁Later	-10.7962
GE	-10.7964
quality	-10.7964
IO	-10.7965
к	-10.7966
Sh	-10.7969
主	-10.797
▁cycle	-10.7973
wan	-10.7978
▁darkness	-10.7979
uz	-10.7982
▁Its	-10.7982
▁Palestine	-10.7989
▁64	-10.799
rant	-10.7995
▁pr	-10.7996
▁intention	-10.7997
▁accompanied	-10.7999
▁moon	-10.8002
▁extremely	-10.8005
▁conducted	-10.8007
▁journal	-10.8008
▁grown	-10.801
▁cluster	-10.801
相	-10.8013
say	-10.8014
Mr	-10.8015
▁$1	-10.8015
▁sustainable	-10.8015
▁driver	-10.8016
▁dynamic	-10.8017
▁collect	-10.8019
▁Change	-10.8019
▁Bell	-10.8019
([	-10.8025
器	-10.8028
oke	-10.8031
▁54	-10.8033
▁rare	-10.8034
▁picked	-10.8036
▁roles	-10.8036
▁loose	-10.8037
▁ref	-10.8038
▁Frederick	-10.8039
问题	-10.8043
▁Cur	-10.8043
Jo	-10.8044
作	-10.8047
CE	-10.8047
`:	-10.8048
▁cra	-10.8049
▁attitude	-10.805
▁characteristics	-10.8053
▁2006	-10.8058
config	-10.8066
▁attempted	-10.8066
▁[]	-10.8071
ole	-10.8071
▁talked	-10.8075
▁charged	-10.8075
▁bond	-10.8079
PS	-10.8081
verse	-10.8081
▁Bal	-10.8082
▁prefer	-10.8085
ados	-10.8085
:\	-10.8085
▁Incomplete	-10.8087
▁Political	-10.809
▁gods	-10.8092
AQ	-10.8092
▁joint	-10.8093
teen	-10.8093
▁humans	-10.8094
▁Master	-10.8094
Ju	-10.8095
php	-10.8097
SO	-10.8101
LO	-10.8102
▁1920	-10.8103
▁cr	-10.8104
Gx	-10.8107
ón	-10.8108
pm	-10.8108
Model	-10.8108
................	-10.8109
▁suitable	-10.8109
output	-10.8111
fl	-10.8111
之	-10.8113
▁honour	-10.8113
sign	-10.8114
▁DE	-10.8117
▁persons	-10.8119
▁billion	-10.812
tch	-10.8121
1)	-10.8122
▁Tre	-10.8123
정	-10.8123
▁annual	-10.8125
▁Persian	-10.8129
▁funds	-10.813
▁inhabitants	-10.8131
▁2007	-10.8135
Ta	-10.8135
も	-10.8137
以下	-10.8138
▁approached	-10.8141
▁beneath	-10.8143
▁campaigns	-10.8148
▁2008	-10.8152
▁competitive	-10.8155
道	-10.8156
pic	-10.8157
▁stayed	-10.8158
▁container	-10.8158
▁selling	-10.8158
▁potentially	-10.8159
▁fallen	-10.8159
▁constantly	-10.8161
uri	-10.8162
▁arch	-10.8163
ject	-10.8168
▁2005	-10.8168
▁watching	-10.8173
▁mistake	-10.8174
lier	-10.8174
▁readers	-10.8175
▁imagine	-10.8175
▁:=	-10.8175
▁jo	-10.8181
▁wished	-10.8183
▁taxonomies	-10.8191
CB	-10.8192
▁surrounded	-10.8192
ches	-10.8193
都	-10.8196
▁Christianity	-10.8197
chen	-10.82
▁blind	-10.82
▁milk	-10.8201
▁pool	-10.8202
▁slightly	-10.8204
language	-10.8205
就	-10.8205
▁drug	-10.8213
▁encouraged	-10.8216
▁Chief	-10.8219
ates	-10.8221
적	-10.8223
▁HTML	-10.8223
NO	-10.8226
▁facing	-10.824
▁yes	-10.824
TI	-10.824
space	-10.8243
最	-10.8245
▁meetings	-10.8246
▁stored	-10.8246
▁Alex	-10.8247
fall	-10.8247
ima	-10.8247
▁distinct	-10.8248
管理	-10.8249
▁chi	-10.8252
▁establishment	-10.8254
▁executed	-10.8258
向	-10.8259
tus	-10.826
status	-10.8261
天	-10.8263
▁Figure	-10.8264
-19	-10.8266
м	-10.8268
▁Title	-10.8268
dar	-10.8271
▁steel	-10.8272
▁subsequent	-10.8277
▁commonly	-10.8277
▁notion	-10.8278
tim	-10.8278
▁evaluate	-10.828
▁14.	-10.8281
AY	-10.8284
PU	-10.8284
▁merchants	-10.8285
tom	-10.8285
din	-10.8286
bound	-10.829
▁val	-10.8295
▁sex	-10.8297
▁Wi	-10.83
cas	-10.8301
service	-10.8301
▁bell	-10.8304
OO	-10.8304
gal	-10.8305
ord	-10.8307
です	-10.831
ien	-10.8311
▁yang	-10.8311
Item	-10.8312
▁Develop	-10.8313
▁considering	-10.8314
▁millions	-10.8314
▁merchant	-10.8315
▁friendly	-10.8318
▁10,	-10.8318
▁nuclear	-10.8319
HR	-10.8319
▁tea	-10.832
▁Years	-10.8321
BB	-10.8322
vert	-10.8323
其他	-10.8325
è	-10.833
ata	-10.833
▁correctly	-10.8331
▁gift	-10.8332
current	-10.8334
aux	-10.8334
▁Have	-10.8334
▁protected	-10.8339
▁120	-10.8342
▁Market	-10.8344
fect	-10.8345
▁fourth	-10.8345
▁Em	-10.8346
▁feared	-10.8347
▁faces	-10.8348
ved	-10.8348
UI	-10.8349
now	-10.8353
Gh	-10.8354
ua	-10.8354
▁stated	-10.8355
CI	-10.8358
she	-10.8361
▁Ali	-10.8364
▁intervention	-10.8366
awa	-10.8367
▁liberty	-10.837
值	-10.8372
▁implications	-10.8373
▁distant	-10.8376
▁rifle	-10.8377
й	-10.8377
所	-10.8378
Washington	-10.8379
np	-10.8382
▁contained	-10.8382
▁languages	-10.8382
ika	-10.8383
▁micro	-10.8386
▁usage	-10.839
isation	-10.8391
▁headed	-10.8391
▁divine	-10.8393
▁8,	-10.8395
return	-10.8396
▁dealing	-10.8396
QM	-10.8404
▁serving	-10.8407
▁Nations	-10.8409
lands	-10.8411
▁motor	-10.8411
▁mixed	-10.8411
MR	-10.8414
▁ST	-10.8415
▁Les	-10.8417
▁category	-10.8418
▁trail	-10.8418
];	-10.842
SV	-10.8424
▁async	-10.8426
zen	-10.843
▁Mag	-10.8431
▁sector	-10.8431
▁defence	-10.8433
kg	-10.8435
▁maintained	-10.8438
▁Greece	-10.8443
▁SQL	-10.8443
▁predictions	-10.8445
▁deeper	-10.8447
▁Studies	-10.8447
QU	-10.8448
▁anger	-10.8449
▁177	-10.845
▁brothers	-10.8451
如何	-10.8457
▁pet	-10.8457
itt	-10.8461
ago	-10.8464
▁Ohio	-10.8465
ego	-10.8466
▁threw	-10.8466
▁Democrats	-10.8467
▁crown	-10.847
any	-10.847
▁diary	-10.8471
▁va	-10.8474
▁grant	-10.8476
▁Staff	-10.8479
▁fetch	-10.8481
▁179	-10.8481
▁sp	-10.8484
EQ	-10.8484
▁1950	-10.8485
明	-10.8486
els	-10.8492
▁reader	-10.8492
▁metrics	-10.8499
▁challenging	-10.85
▁confirmed	-10.85
▁indicate	-10.8507
product	-10.8508
▁atmosphere	-10.8511
▁overcome	-10.8513
▁arrest	-10.8513
▁navy	-10.8516
▁burned	-10.8516
▁alert	-10.8516
▁careful	-10.8517
▁constitution	-10.8518
▁Francis	-10.8523
FE	-10.8524
▁ourselves	-10.8526
shire	-10.8527
Mu	-10.8527
▁permit	-10.853
▁Bull	-10.8531
▁acquired	-10.8531
▁courage	-10.8533
tl	-10.8534
▁Marketing	-10.8534
▁seized	-10.8534
▁significance	-10.8534
pil	-10.8535
▁Bro	-10.8536
▁regularly	-10.8536
▁succeed	-10.8539
▁violent	-10.8539
IF	-10.8539
▁assessment	-10.8542
▁hurt	-10.8544
▁sugar	-10.8547
▁expand	-10.8547
▁collapse	-10.8549
ald	-10.8549
▁parent	-10.855
▁Was	-10.8551
▁roof	-10.8552
▁survived	-10.8556
▁myth	-10.8557
▁listen	-10.8559
입니다	-10.8559
▁decline	-10.8568
▁65	-10.8568
EX	-10.8569
▁steam	-10.857
fin	-10.8571
ère	-10.8572
DS	-10.8573
▁causing	-10.8574
▁wearing	-10.8575
rc	-10.8579
wing	-10.858
rb	-10.858
master	-10.8581
▁Kingdom	-10.8582
▁1930	-10.8582
▁recall	-10.8582
▁Jane	-10.8582
ope	-10.8585
▁Austrian	-10.8588
▁Text	-10.8588
/3	-10.8589
Node	-10.8592
▁CA	-10.8592
sia	-10.8593
▁burst	-10.8594
▁newspapers	-10.8595
▁Australian	-10.8598
▁sacrifice	-10.8599
Your	-10.8601
▁lawyer	-10.8603
Get	-10.8607
▁liked	-10.8607
tric	-10.8609
▁Implement	-10.8611
▁criteria	-10.8611
▁contemporary	-10.8612
Ga	-10.8613
▁Santa	-10.8615
▁err	-10.8615
SH	-10.8615
▁promotion	-10.8616
▁Having	-10.8616
▁beach	-10.8616
▁yield	-10.8617
▁UK	-10.8621
▁dozen	-10.8621
tags	-10.8624
▁burning	-10.8624
▁Malcolm	-10.8625
▁nice	-10.8626
RS	-10.8626
▁preferred	-10.863
ы	-10.8635
▁chamber	-10.864
▁club	-10.864
文	-10.8641
▁uniform	-10.8642
▁Father	-10.8643
▁relation	-10.8644
VM	-10.8647
▁cha	-10.8647
▁Inter	-10.8648
▁rational	-10.865
DI	-10.8653
turn	-10.8655
▁pizza	-10.8659
同	-10.866
ake	-10.866
▁Bas	-10.8662
-11	-10.8663
fire	-10.8663
td	-10.8667
▁1996	-10.8668
yo	-10.8669
▁Without	-10.8671
TY	-10.8671
▁comparison	-10.8672
UP	-10.8673
▁Sh	-10.8675
▁BC	-10.8676
Ac	-10.8677
▁Morgan	-10.8679
▁democracy	-10.8679
LU	-10.8681
▁implementing	-10.8682
cip	-10.8684
▁invest	-10.8684
▁distributed	-10.8685
▁detect	-10.8686
jpg	-10.8687
asi	-10.8692
▁Young	-10.8693
▁wise	-10.8694
▁confirm	-10.8698
pers	-10.8698
ENT	-10.87
dor	-10.8701
ois	-10.8707
▁Image	-10.871
hl	-10.871
▁wouldn	-10.8711
▁rent	-10.8711
去	-10.8712
when	-10.8716
提高	-10.8716
▁đ	-10.8717
重	-10.8718
▁putting	-10.8718
what	-10.8724
▁align	-10.8725
▁2003	-10.8725
▁suggestions	-10.8728
▁1940	-10.8731
▁175	-10.8732
▁shut	-10.8733
lia	-10.8734
OT	-10.8735
▁Type	-10.8735
当	-10.8735
▁returning	-10.8736
▁portion	-10.874
▁ease	-10.8742
▁reward	-10.8744
Ey	-10.8745
하여	-10.8746
▁navigate	-10.8751
▁Rock	-10.8753
▁fund	-10.8756
▁operate	-10.8759
OD	-10.8759
▁industries	-10.8761
tribut	-10.8763
▁rebellion	-10.8763
▁collected	-10.8766
▁beside	-10.8767
▁confident	-10.877
▁elsewhere	-10.8772
▁font	-10.8774
san	-10.8779
Dr	-10.878
▁smooth	-10.8781
));	-10.8781
▁Start	-10.8784
gon	-10.8784
IR	-10.8785
▁aside	-10.8786
HB	-10.8786
▁rode	-10.8788
▁2002	-10.8791
▁plants	-10.8792
▁fled	-10.8792
kn	-10.8792
Bar	-10.8794
▁attract	-10.88
▁Sie	-10.8801
▁Ireland	-10.8805
▁greatly	-10.8808
▁firing	-10.8808
▁extraordinary	-10.8808
HE	-10.8808
著	-10.8809
ending	-10.8809
▁bus	-10.881
▁Romans	-10.8811
national	-10.8816
ю	-10.8818
▁noticed	-10.8819
Users	-10.8823
▁revolutionary	-10.8825
▁margin	-10.8826
▁tanks	-10.8831
loc	-10.8832
意	-10.8832
▁compare	-10.8834
▁tribes	-10.8835
▁Justice	-10.8836
▁buried	-10.8838
far	-10.8842
British	-10.8843
▁immigrants	-10.8843
▁quest	-10.8845
▁bullet	-10.8848
stra	-10.8848
▁Des	-10.8849
包括	-10.885
▁Nu	-10.885
自己的	-10.8851
▁fortune	-10.8851
л	-10.8851
▁matrix	-10.8852
▁JavaScript	-10.8852
▁Tri	-10.8853
met	-10.8854
▁Anglo	-10.8858
▁followers	-10.8859
cht	-10.8862
て	-10.8864
▁threats	-10.8867
where	-10.8867
UT	-10.887
PP	-10.8872
Count	-10.8872
TR	-10.8872
б	-10.8873
bro	-10.8874
▁warned	-10.8879
▁remarkable	-10.888
▁expectations	-10.8886
ore	-10.8887
▁prologue	-10.8888
▁flood	-10.8889
[1]	-10.8891
▁Did	-10.8892
▁ambassador	-10.8898
hol	-10.8899
▁arise	-10.89
▁Command	-10.8902
▁Lady	-10.8902
▁Women	-10.8902
▁más	-10.8904
open	-10.8905
▁static	-10.8906
AAAAAAAAA	-10.8907
SR	-10.891
flow	-10.891
sel	-10.8911
▁friendship	-10.8916
▁56	-10.892
▁shell	-10.8926
▁sal	-10.8933
TM	-10.8934
▁wore	-10.8935
▁addressed	-10.8936
//9	-10.8937
▁Spring	-10.894
▁invited	-10.8942
▁gu	-10.8943
▁routine	-10.8944
▁Harvard	-10.8945
적인	-10.8946
▁estimated	-10.8948
▁Amazon	-10.895
high	-10.8953
▁Dec	-10.8957
▁recommended	-10.8957
▁Academy	-10.8963
▁ta	-10.8965
▁Intelligence	-10.8967
这个	-10.8968
▁habit	-10.8971
ille	-10.8972
▁planet	-10.8974
▁Customer	-10.8974
▁victims	-10.898
▁yards	-10.8985
▁Trade	-10.8987
▁casualties	-10.8987
▁probability	-10.8994
ground	-10.9
▁gen	-10.9003
ste	-10.9004
▁fat	-10.9004
▁settings	-10.9006
▁arrested	-10.9006
cor	-10.9007
FI	-10.901
▁char	-10.9011
▁governance	-10.9012
能	-10.9012
nel	-10.9014
▁mile	-10.9015
▁magic	-10.9016
clock	-10.9016
▁torch	-10.9019
OW	-10.9019
▁neck	-10.902
append	-10.9022
加	-10.9024
gr	-10.9032
▁Club	-10.9038
▁reliable	-10.9039
2/	-10.9039
BI	-10.904
▁crack	-10.904
onic	-10.9041
▁grass	-10.9045
▁governments	-10.9045
nh	-10.9046
qua	-10.9046
▁leads	-10.9047
▁photo	-10.9047
▁owners	-10.9048
▁Arm	-10.9048
▁abilities	-10.9048
AAAAAAA	-10.905
▁analytics	-10.9051
Charles	-10.9051
▁Sha	-10.9054
PO	-10.9054
▁contracts	-10.9063
▁reporting	-10.9066
uel	-10.9066
▁proud	-10.9066
те	-10.9068
▁labour	-10.9068
▁Sherman	-10.907
▁roads	-10.9072
▁acts	-10.9081
▁93	-10.9082
▁prince	-10.9082
rum	-10.9083
▁outline	-10.9086
▁Bible	-10.9086
cla	-10.9089
vent	-10.9092
▁transform	-10.9096
yan	-10.9099
kl	-10.9101
AO	-10.9101
▁societies	-10.9101
▁9,	-10.9102
▁yellow	-10.9102
▁charges	-10.9107
▁Form	-10.911
▁optimize	-10.911
▁Water	-10.9112
rg	-10.9112
▁Network	-10.9113
▁Para	-10.9114
▁300	-10.9116
▁tables	-10.9116
Fh	-10.9116
▁currently	-10.9117
▁Gra	-10.9118
▁difficulties	-10.9124
sol	-10.9126
▁sentiment	-10.9126
▁prospect	-10.9127
م	-10.9128
lov	-10.9134
aff	-10.9141
▁experts	-10.9148
▁ja	-10.9149
▁Through	-10.915
▁Call	-10.915
▁lock	-10.9152
▁statements	-10.9153
kov	-10.9153
▁meta	-10.9155
graph	-10.9156
fort	-10.9156
正	-10.9156
▁bas	-10.9157
▁attended	-10.9159
▁IT	-10.9159
bra	-10.9159
query	-10.916
under	-10.916
▁gather	-10.9162
▁engineer	-10.9162
mond	-10.9168
▁coat	-10.9169
ה	-10.917
Op	-10.9172
▁district	-10.9172
▁Rights	-10.9174
▁sheet	-10.9175
Ki	-10.9177
mas	-10.918
ters	-10.918
▁sensitive	-10.918
▁Han	-10.9181
▁dedicated	-10.9181
leg	-10.9182
▁hash	-10.9184
▁optimization	-10.9186
cast	-10.9188
▁password	-10.9189
▁artist	-10.9189
요	-10.9189
▁proportion	-10.9192
ي	-10.9194
RU	-10.9195
▁Simon	-10.9196
Result	-10.9196
▁pocket	-10.9198
▁everywhere	-10.92
▁Mass	-10.9207
▁2004	-10.9211
▁containing	-10.9212
▁bow	-10.9215
▁15.	-10.9215
り	-10.9216
▁58	-10.922
位	-10.9221
る	-10.9221
▁pack	-10.9222
▁faster	-10.9222
▁Front	-10.9223
▁exp	-10.9223
▁reflected	-10.9225
▁net	-10.9229
▁flank	-10.923
angle	-10.9233
vor	-10.9235
Ja	-10.9236
▁Section	-10.9236
▁knows	-10.9236
▁updates	-10.9237
udi	-10.9237
▁visible	-10.9238
▁sobre	-10.9244
xx	-10.9244
▁pla	-10.9244
▁significantly	-10.9246
rian	-10.9249
ene	-10.925
roll	-10.9251
▁advantages	-10.9251
rig	-10.9253
▁Supreme	-10.9253
Ix	-10.9255
▁presidential	-10.9256
ography	-10.9257
wA	-10.9258
▁sus	-10.9262
RY	-10.9266
TV	-10.9266
▁Ya	-10.9267
err	-10.9267
ales	-10.9267
JS	-10.9269
▁vehicle	-10.9271
MI	-10.9272
▁university	-10.9276
▁recommendations	-10.9278
america	-10.9281
▁Real	-10.9281
▁collective	-10.9281
▁95	-10.9283
з	-10.9284
▁technique	-10.9286
研究	-10.9286
urs	-10.9286
pri	-10.9288
rin	-10.9288
▁insurance	-10.9289
mente	-10.929
▁poet	-10.9291
▁witness	-10.9293
nal	-10.9294
aj	-10.9295
ре	-10.9296
▁"""	-10.9297
▁Product	-10.9298
▁baby	-10.9299
ти	-10.93
请	-10.9301
▁Ob	-10.9302
▁falling	-10.9302
Hi	-10.9309
▁breaking	-10.9312
tical	-10.9314
west	-10.9314
dict	-10.9315
▁parameter	-10.9316
info	-10.9317
▁urged	-10.9318
note	-10.9319
ciones	-10.9319
▁tab	-10.932
VE	-10.932
▁emotion	-10.9322
ear	-10.9323
▁»	-10.9323
▁ban	-10.9327
▁│	-10.9329
lit	-10.9332
exp	-10.9333
▁Secret	-10.9335
▁eager	-10.9335
tors	-10.9338
search	-10.9339
▁67	-10.9341
idad	-10.9341
▁ruled	-10.9342
▁176	-10.9343
▁Caesar	-10.9348
▁Death	-10.9349
▁Foundation	-10.9352
editor	-10.9352
▁participants	-10.9355
回	-10.9358
▁Hol	-10.9358
▁nu	-10.936
▁realize	-10.936
array	-10.9361
▁Ser	-10.9363
Gl	-10.9365
▁forever	-10.9366
▁tips	-10.9366
▁libraries	-10.9366
▁tion	-10.9367
ql	-10.9368
AU	-10.937
▁shadow	-10.937
▁loyal	-10.9372
yard	-10.9373
Fa	-10.9374
duc	-10.9376
cat	-10.9376
▁rejected	-10.9378
Li	-10.9379
▁priest	-10.9379
NG	-10.9381
▁facts	-10.9384
600	-10.9385
▁Board	-10.9387
tas	-10.9388
Har	-10.939
▁width	-10.9392
▁Treaty	-10.9394
each	-10.9395
▁comfortable	-10.9396
▁57	-10.9399
▁Afghanistan	-10.9399
日	-10.9399
AAA	-10.94
alternative	-10.9402
▁studied	-10.9404
▁conservative	-10.9405
▁admitted	-10.9408
ction	-10.9409
▁ok	-10.9412
Si	-10.9414
▁medicine	-10.9414
▁71	-10.9416
▁medium	-10.942
bus	-10.942
▁leaves	-10.9421
▁1939	-10.9423
▁wisdom	-10.9425
▁owned	-10.9428
ister	-10.9429
▁displayed	-10.9431
tant	-10.9433
▁resist	-10.9434
▁fail	-10.9435
▁shock	-10.9437
▁promoting	-10.9439
sz	-10.9439
▁Pen	-10.944
power	-10.9441
DD	-10.9443
▁Quantum	-10.9445
▁transactions	-10.9445
次	-10.9453
▁Gen	-10.9455
у	-10.9455
▁legs	-10.9456
면	-10.9458
bal	-10.9459
▁conflicts	-10.9459
▁McC	-10.946
▁demonstrate	-10.9461
▁62	-10.9461
▁treat	-10.9464
▁successor	-10.9466
tag	-10.9469
▁identifying	-10.947
▁vehicles	-10.9471
EAA	-10.9474
▁universal	-10.9477
known	-10.9477
▁bore	-10.9477
IG	-10.9481
â	-10.9484
▁lying	-10.9488
▁94	-10.949
▁visitors	-10.9492
▁clothing	-10.9493
▁기	-10.9498
▁flash	-10.9499
▁stronger	-10.9505
Ah	-10.9508
ges	-10.9508
mis	-10.951
friendly	-10.951
▁£	-10.9511
anti	-10.9519
▁Mil	-10.9523
▁Jean	-10.9524
▁160	-10.9528
▁siege	-10.9528
example	-10.9529
▁conversion	-10.9531
unt	-10.9532
uh	-10.9534
function	-10.9535
North	-10.9535
▁exception	-10.9535
▁Del	-10.9535
▁evaluation	-10.9537
▁loan	-10.9538
ough	-10.9538
▁limits	-10.9539
▁Walter	-10.9541
▁Best	-10.9541
RT	-10.9542
▁queen	-10.9542
▁tent	-10.9544
▁Missouri	-10.9545
Ge	-10.9545
▁rows	-10.9546
▁criticism	-10.9546
▁effectiveness	-10.9546
yr	-10.9549
▁servants	-10.9549
▁AS	-10.9552
▁Ram	-10.9553
found	-10.9553
case	-10.9553
▁ratio	-10.9554
▁render	-10.9556
▁hell	-10.9557
▁possessed	-10.9559
▁brown	-10.9562
▁Return	-10.9562
▁execute	-10.9562
zer	-10.9564
▁11,	-10.9565
▁1945	-10.9565
▁monarch	-10.9566
于	-10.9571
augh	-10.9573
▁flu	-10.9573
\\	-10.9573
▁1933	-10.9574
▁proceed	-10.9574
▁Albert	-10.9576
ency	-10.9577
IB	-10.9579
▁lies	-10.958
▁tri	-10.958
▁striking	-10.9583
▁revolt	-10.9584
▁landed	-10.9585
▁obtained	-10.9589
▁extensive	-10.9589
=1	-10.9591
▁shares	-10.9591
▁teaching	-10.9594
▁Look	-10.9594
▁anxious	-10.9602
▁Scotland	-10.9602
▁sail	-10.9603
▁recommend	-10.9606
sie	-10.9608
▁cousin	-10.9609
▁corresponding	-10.961
▁Ly	-10.9619
▁worry	-10.962
▁arrive	-10.9621
▁accused	-10.9622
PH	-10.9625
▁Had	-10.9626
看	-10.9631
▁taxes	-10.9632
▁vice	-10.9633
▁Would	-10.9635
▁crossing	-10.9635
197	-10.9635
▁intense	-10.9639
▁bias	-10.964
▁SS	-10.9641
response	-10.9641
▁situations	-10.9641
▁blockchain	-10.9643
▁rival	-10.9643
YUL	-10.9645
▁islands	-10.9647
▁treasure	-10.9648
arch	-10.9648
▁Example	-10.9656
▁Ok	-10.9659
▁trace	-10.966
▁Team	-10.9663
▁nodes	-10.9663
face	-10.9669
SW	-10.967
▁reaching	-10.9682
通过	-10.9683
sent	-10.9683
▁attend	-10.9684
struct	-10.9684
Code	-10.9687
▁gathering	-10.9689
gue	-10.9689
▁PM	-10.9689
▁181	-10.969
▁colors	-10.9691
▁sale	-10.9692
▁drone	-10.9692
▁brave	-10.9693
▁있는	-10.9693
▁http	-10.9694
▁fly	-10.9695
▁gentleman	-10.9701
▁absolute	-10.9701
▁Cl	-10.9702
web	-10.9704
▁bu	-10.9706
Why	-10.9709
▁cry	-10.9709
г	-10.971
▁Theodore	-10.9711
pass	-10.9712
▁feed	-10.9713
▁gender	-10.9714
ret	-10.9716
▁waited	-10.9716
NAME	-10.9717
hin	-10.9718
	-10.9719
▁determination	-10.9721
▁Question	-10.9722
▁Ash	-10.9723
▁pounds	-10.9724
▁consent	-10.9725
DBA	-10.9727
Bx	-10.973
▁possession	-10.9735
sey	-10.9736
но	-10.9737
UD	-10.9738
itch	-10.9738
UL	-10.9738
▁Hamilton	-10.9739
▁desperate	-10.9739
화	-10.9739
emp	-10.974
▁perfectly	-10.974
▁constitutional	-10.9742
description	-10.9744
cro	-10.9747
LC	-10.9751
tique	-10.9752
▁functionality	-10.9752
She	-10.9753
▁commanded	-10.9754
Button	-10.9757
▁destination	-10.9759
Ul	-10.9759
request	-10.976
▁alien	-10.976
Dx	-10.9762
lect	-10.9764
▁pursuit	-10.977
Gi	-10.977
▁Ty	-10.977
published	-10.9771
▁spending	-10.9773
▁busy	-10.9776
▁partners	-10.9778
rá	-10.9778
find	-10.9782
▁2009	-10.9784
▁Por	-10.9789
▁diplomatic	-10.9792
BE	-10.9792
▁angry	-10.9794
business	-10.9794
▁Fall	-10.9794
sse	-10.9795
Ad	-10.9795
ière	-10.9798
▁lieutenant	-10.9799
▁Lewis	-10.9801
iti	-10.9803
try	-10.9804
▁concentration	-10.9806
party	-10.9806
▁doctrine	-10.9808
▁chest	-10.9814
▁horror	-10.9815
isse	-10.9816
ı	-10.9818
▁Cost	-10.9819
sburg	-10.9821
▁2010	-10.9824
ere	-10.9831
osis	-10.9832
Man	-10.9832
▁1968	-10.9835
Ni	-10.9835
き	-10.9836
▁Modern	-10.9837
▁supporting	-10.9839
▁0)	-10.984
▁focusing	-10.9841
▁Read	-10.9843
▁Remember	-10.9844
wall	-10.9846
tw	-10.9846
HS	-10.9847
ried	-10.9848
▁rail	-10.9848
VC	-10.9849
nia	-10.985
▁patrol	-10.985
▁luck	-10.9853
▁Love	-10.9853
▁maintenance	-10.9854
▁immense	-10.9855
▁stores	-10.9856
▁perceived	-10.9857
▁bottle	-10.986
▁audio	-10.9864
▁dust	-10.9865
nom	-10.9868
john	-10.9869
▁installed	-10.9871
▁63	-10.9872
▁Temple	-10.9874
▁linked	-10.9875
rack	-10.9876
▁apparent	-10.9876
via	-10.9879
▁Six	-10.988
▁abuse	-10.9881
pot	-10.9881
▁silent	-10.9883
▁Education	-10.9888
▁stable	-10.9888
▁eating	-10.9895
▁depends	-10.9895
close	-10.9897
▁pin	-10.9899
▁166	-10.9901
tation	-10.9902
▁copyright	-10.9902
▁responded	-10.9906
bul	-10.9906
▁thrown	-10.9911
uf	-10.9912
▁expensive	-10.9913
lus	-10.9914
ж	-10.9915
▁163	-10.9916
▁receiving	-10.9917
▁gra	-10.9918
▁2017	-10.992
▁dressed	-10.992
▁spa	-10.9921
ident	-10.9922
▁ranks	-10.9924
▁curious	-10.9925
트	-10.9925
▁Tennessee	-10.9926
UC	-10.9928
▁59	-10.993
다	-10.9936
▁programme	-10.9937
Per	-10.9937
▁awareness	-10.9938
▁convoy	-10.994
LS	-10.994
ern	-10.9941
▁Muslims	-10.9941
ander	-10.9942
hor	-10.9944
▁Harbor	-10.9945
▁cook	-10.9948
▁16.	-10.995
▁giant	-10.9951
▁construct	-10.9952
▁tag	-10.9954
▁encountered	-10.9955
▁flying	-10.9958
force	-10.9965
nut	-10.9967
▁Math	-10.9968
▁gradually	-10.9972
▁fur	-10.9973
	-10.9973
NY	-10.9976
后	-10.9976
▁Pakistan	-10.9979
▁tactics	-10.998
▁honest	-10.998
▁interactions	-10.9981
rr	-10.9983
▁suppose	-10.9984
When	-10.9985
▁stack	-10.9988
信	-10.9995
Pe	-10.9996
ión	-10.9997
▁estimate	-10.9997
▁Korea	-10.9997
▁folder	-10.9998
▁puede	-10.9999
Com	-11
▁duties	-11
▁excited	-11
xy	-11.0003
than	-11.0003
▁fault	-11.0004
Gr	-11.0009
south	-11.0011
▁permanent	-11.0011
▁Jim	-11.0012
但	-11.0015
美	-11.0017
▁homes	-11.0018
hal	-11.0019
▁Der	-11.0019
▁affair	-11.0019
▁Comp	-11.002
ни	-11.002
▁happiness	-11.0021
uit	-11.0022
▁trick	-11.0023
▁Fin	-11.0023
Pu	-11.0024
cio	-11.0025
left	-11.0025
▁inner	-11.0026
▁burden	-11.0028
0.0	-11.0029
ador	-11.003
made	-11.0031
▁trigger	-11.0032
ural	-11.0034
igo	-11.0034
▁distinction	-11.0035
▁windows	-11.0035
▁apartment	-11.0037
▁assume	-11.0037
▁Joe	-11.0039
▁About	-11.0041
ר	-11.0044
▁по	-11.0047
▁angle	-11.0048
ava	-11.005
▁necessarily	-11.0055
▁computing	-11.0055
YH	-11.0056
eller	-11.0056
BU	-11.0057
qq	-11.006
LT	-11.0063
▁exposed	-11.0063
Em	-11.0065
▁Mexican	-11.0071
▁tells	-11.0072
▁equation	-11.0074
▁raw	-11.0079
▁tracking	-11.008
().	-11.0082
▁dynasty	-11.0083
▁maybe	-11.0086
Set	-11.0088
rid	-11.0089
▁Min	-11.0089
▁72	-11.009
▁topics	-11.0095
connect	-11.0097
▁primarily	-11.0097
▁!=	-11.0098
author	-11.0098
▁frequency	-11.01
▁classic	-11.0104
▁approval	-11.0105
く	-11.0106
▁marched	-11.0108
▁fever	-11.0109
▁adventure	-11.0112
Cr	-11.0113
MO	-11.0121
▁Allies	-11.0122
vic	-11.0124
▁shoulder	-11.0126
=0	-11.0126
▁emphasis	-11.0127
▁prisoner	-11.0129
ral	-11.013
TER	-11.0133
▁consideration	-11.0134
▁NA	-11.0134
▁Control	-11.0139
adi	-11.0143
▁authors	-11.0143
▁66	-11.0144
price	-11.0146
▁signature	-11.0146
poli	-11.0149
▁typical	-11.0149
─	-11.0152
▁existed	-11.0153
EV	-11.0154
▁12,	-11.0154
they	-11.0157
▁gray	-11.0158
Europe	-11.016
▁implemented	-11.0162
▁argue	-11.0162
▁Square	-11.0163
Pre	-11.0164
▁losing	-11.0165
Robert	-11.0174
实	-11.0174
cial	-11.0177
rav	-11.0177
▁detection	-11.0187
Ku	-11.0188
▁rough	-11.0189
▁imagination	-11.019
▁spell	-11.0192
lation	-11.0192
ao	-11.0193
▁categories	-11.0194
ht	-11.0195
▁whale	-11.0197
▁Bor	-11.0197
▁Camp	-11.0203
core	-11.0204
VA	-11.0207
하	-11.0208
▁negotiations	-11.021
教	-11.021
▁firms	-11.0212
▁calculated	-11.0214
Add	-11.0216
▁neighborhood	-11.0228
▁vessels	-11.0231
▁seriously	-11.0231
Fe	-11.0231
▁raid	-11.0232
lent	-11.0232
RM	-11.0237
模型	-11.0242
▁convey	-11.0242
▁grid	-11.0243
▁Auto	-11.0245
▁internet	-11.0256
▁Bur	-11.0257
▁chart	-11.0257
能力	-11.0259
▁automatically	-11.0259
▁Boy	-11.026
▁Story	-11.026
▁coal	-11.0263
né	-11.0266
▁cabinet	-11.0269
RR	-11.0271
river	-11.0271
▁dying	-11.0271
src	-11.0272
${	-11.0272
MB	-11.0272
2022	-11.0274
个	-11.0276
▁Carl	-11.0276
▁Last	-11.0276
▁suffer	-11.0277
▁attached	-11.0277
Wa	-11.028
ą	-11.0282
▁85	-11.0282
▁Cu	-11.0282
文化	-11.0283
worth	-11.0283
▁Main	-11.0283
▁worried	-11.0283
css	-11.0287
▁edition	-11.0288
dal	-11.0288
▁cars	-11.0291
▁wooden	-11.0292
united	-11.0292
代码	-11.0293
▁pure	-11.0296
Wh	-11.0296
▁illness	-11.0297
나	-11.03
▁possess	-11.0303
▁specify	-11.0304
▁cutting	-11.0305
▁accessible	-11.0305
▁representative	-11.0309
▁shooting	-11.0309
3%	-11.031
▁Year	-11.031
▁2015	-11.0311
▁marry	-11.0312
▁continent	-11.0312
▁electric	-11.0313
aria	-11.0314
▁Number	-11.0315
eva	-11.0315
such	-11.0316
ml	-11.0317
▁intent	-11.0318
rot	-11.0319
▁인	-11.0321
weight	-11.0321
▁Laden	-11.0321
ality	-11.0321
指	-11.0323
▁tight	-11.0323
great	-11.0324
HA	-11.0326
▁initially	-11.0328
た	-11.0329
cient	-11.033
oul	-11.0331
got	-11.0335
▁examine	-11.0336
▁survival	-11.0337
UG	-11.0337
tting	-11.0339
▁Bel	-11.034
oph	-11.034
▁대한	-11.0341
▁Learning	-11.0341
▁acting	-11.0344
▁decisive	-11.0345
▁tank	-11.0345
▁presentation	-11.0348
client	-11.035
OB	-11.0351
JJ	-11.0353
tk	-11.0354
location	-11.0354
▁wants	-11.0357
vr	-11.0358
▁medieval	-11.0359
nis	-11.0359
▁Allen	-11.0361
▁stability	-11.0361
▁writers	-11.0362
这些	-11.0362
▁Va	-11.0365
文件	-11.0367
▁stars	-11.0367
jk	-11.0371
ista	-11.0372
ifying	-11.0372
tics	-11.0374
800	-11.0374
▁brilliant	-11.0375
▁coup	-11.0375
▁pace	-11.0376
▁Ci	-11.0377
▁uncle	-11.0377
▁theater	-11.0378
▁shoot	-11.038
TT	-11.0381
gri	-11.0382
stream	-11.0385
▁generations	-11.0387
後	-11.0389
ising	-11.039
信息	-11.039
▁Op	-11.0392
ées	-11.0392
▁Count	-11.0392
til	-11.0394
oid	-11.0395
"]},{"	-11.0396
▁educational	-11.0396
(1)	-11.0397
▁blog	-11.0401
target	-11.0403
▁Update	-11.0408
gc	-11.0408
196	-11.0408
▁sont	-11.0409
called	-11.041
150	-11.0411
х	-11.0412
▁pilot	-11.0415
ão	-11.0416
▁preparing	-11.0416
】	-11.0417
▁targets	-11.0418
wB	-11.0418
▁ongoing	-11.0418
▁Global	-11.0419
eux	-11.0419
▁neutral	-11.0419
▁manifest	-11.0421
▁introduce	-11.0423
tory	-11.0425
▁afford	-11.0426
▁documentation	-11.0428
▁Trans	-11.0431
‘	-11.0431
外	-11.0432
▁partly	-11.0438
▁Contract	-11.044
May	-11.0441
▁investors	-11.0442
▁dawn	-11.0442
▁Vo	-11.0449
nine	-11.0451
Tu	-11.0451
▁Java	-11.0454
hold	-11.046
▁teacher	-11.046
▁civilian	-11.0461
▁wake	-11.0463
DR	-11.0466
那	-11.0467
MU	-11.0468
VR	-11.0471
▁61	-11.0471
root	-11.0475
EP	-11.0475
▁developers	-11.0478
SD	-11.048
():	-11.048
▁Morris	-11.048
▁Peace	-11.0482
▁Books	-11.0482
Bl	-11.0483
▁consumption	-11.0487
▁ear	-11.0488
▁tiny	-11.049
▁Generate	-11.0492
▁Cap	-11.0495
▁psychological	-11.0496
▁tokens	-11.0498
▁fewer	-11.05
▁procedures	-11.05
wick	-11.05
▁pos	-11.0501
▁productivity	-11.0501
▁Ford	-11.0503
▁joke	-11.0504
▁exploit	-11.0504
MY	-11.0504
▁motivation	-11.0507
ل	-11.0509
▁consciousness	-11.0509
▁Howard	-11.0509
JK	-11.051
▁poison	-11.0511
▁mix	-11.0514
▁ph	-11.0514
stitute	-11.0518
▁advertising	-11.0518
cite	-11.0518
▁guarantee	-11.052
▁&&	-11.052
▁Microsoft	-11.0521
▁cards	-11.0524
▁sentences	-11.0526
PT	-11.0526
▁meal	-11.0527
▁Gold	-11.0531
▁bag	-11.0532
▁minimum	-11.0533
▁mainly	-11.0536
▁residents	-11.054
MP	-11.0544
▁wound	-11.0544
▁Arch	-11.0549
elli	-11.0549
cept	-11.0552
▁FDR	-11.0552
▁classification	-11.0555
National	-11.0555
▁zero	-11.0556
▁departure	-11.0556
▁hide	-11.0559
▁approximately	-11.0559
▁mounted	-11.0559
▁sacred	-11.0561
▁Prussia	-11.0562
▁stands	-11.0562
icon	-11.0564
▁garrison	-11.0566
情	-11.0568
▁Imperial	-11.0571
▁painting	-11.0571
▁wealthy	-11.0571
ра	-11.0571
▁scientists	-11.0575
Henry	-11.0576
dra	-11.0579
second	-11.058
FO	-11.0584
▁자	-11.0585
vil	-11.0585
▁professor	-11.0587
▁Whether	-11.0587
iling	-11.0589
▁retain	-11.059
▁Prussian	-11.0594
▁Richmond	-11.0596
▁consumer	-11.0596
▁victim	-11.0597
▁mad	-11.0597
▁Fla	-11.0597
CV	-11.0599
Request	-11.06
stand	-11.0606
▁modified	-11.0609
rous	-11.061
▁json	-11.0611
▁innovative	-11.0611
▁guards	-11.0612
▁minor	-11.0612
▁18.	-11.0613
▁template	-11.0614
▁widespread	-11.0614
▁television	-11.0615
ony	-11.0615
و	-11.0617
kar	-11.0619
▁ci	-11.062
▁Fo	-11.062
▁overview	-11.0621
▁cal	-11.0624
pon	-11.0625
▁Maria	-11.0625
▁assess	-11.0625
▁seventy	-11.0626
▁Dam	-11.063
gli	-11.0632
▁Islamic	-11.0632
▁tough	-11.0634
▁ultimate	-11.0636
oi	-11.0638
▁compound	-11.064
▁museum	-11.0643
▁mud	-11.0644
▁lunch	-11.0645
▁Bri	-11.0648
Ky	-11.065
상	-11.0651
▁continuous	-11.0652
rn	-11.0655
]]	-11.0655
▁eighteenth	-11.0656
▁Cape	-11.0656
▁tomb	-11.0658
▁Bismarck	-11.066
▁CO	-11.066
▁91	-11.0662
▁moderate	-11.0663
grad	-11.0665
check	-11.0666
itz	-11.0666
根据	-11.0667
rel	-11.0668
▁pursue	-11.0671
▁personnel	-11.0673
▁19.	-11.0678
▁crop	-11.0679
▁mais	-11.068
▁Venice	-11.0682
▁Win	-11.0684
▁waters	-11.0685
jj	-11.0685
▁whites	-11.0685
▁Catherine	-11.0689
▁entity	-11.0689
▁+=	-11.069
▁humanity	-11.0691
wy	-11.0692
▁Madison	-11.0693
▁battles	-11.0693
▁listening	-11.0694
writing	-11.0694
sql	-11.0695
rey	-11.0696
GA	-11.0696
▁Anna	-11.0696
loss	-11.0696
▁adults	-11.0697
▁17.	-11.07
▁generals	-11.0702
▁limitations	-11.0702
▁batch	-11.0702
▁가	-11.0704
server	-11.0705
bil	-11.0709
▁-->	-11.0709
txt	-11.071
zh	-11.0712
因此	-11.0712
▁2)	-11.0713
▁bull	-11.0718
▁unexpected	-11.0721
▁tears	-11.0722
▁__	-11.0722
▁battlefield	-11.0724
▁temple	-11.0725
▁plague	-11.0725
▁Bob	-11.0726
Image	-11.0728
▁eff	-11.0728
▁cognitive	-11.0729
just	-11.0733
▁planes	-11.0741
ying	-11.0742
BAQEBAAAAAAAAAA	-11.0743
▁len	-11.0743
cel	-11.0745
р	-11.0745
▁Hart	-11.0746
▁Williams	-11.0746
▁depression	-11.0747
▁Canadian	-11.0748
▁agriculture	-11.0748
▁pop	-11.0749
▁73	-11.0754
▁168	-11.0756
▁tro	-11.0756
▁tower	-11.0758
aged	-11.0764
▁bombing	-11.0764
ML	-11.0765
▁interpret	-11.0765
▁satisfied	-11.0766
german	-11.0767
def	-11.0767
Mc	-11.077
▁plt	-11.0773
▁frequent	-11.0776
America	-11.0778
Tr	-11.0778
▁68	-11.0778
▁disorders	-11.0781
JU	-11.0784
▁finish	-11.0784
▁loud	-11.0784
▁worship	-11.0786
▁surprised	-11.0787
▁Run	-11.0788
▁shelter	-11.079
▁counsel	-11.0791
Germany	-11.0792
▁barely	-11.0792
▁territories	-11.0793
DY	-11.0794
gA	-11.0795
内容	-11.0795
arm	-11.0796
▁nose	-11.0798
▁portrait	-11.0801
▁militia	-11.0802
KS	-11.0802
rank	-11.0803
▁elections	-11.0805
▁fee	-11.0808
▁winning	-11.0812
War	-11.0812
▁strongly	-11.0816
AAAAAABw	-11.0816
▁Illinois	-11.0817
ici	-11.0817
address	-11.0817
nan	-11.0818
▁Jersey	-11.0819
▁influenced	-11.0819
Bi	-11.0823
▁twentieth	-11.0823
Field	-11.0826
▁Ocean	-11.0827
Du	-11.0829
▁exit	-11.083
rated	-11.0831
▁Technology	-11.0832
ggle	-11.0835
▁zone	-11.0836
▁대	-11.0838
▁1941	-11.0838
XV	-11.0839
lies	-11.084
▁Mount	-11.084
band	-11.0844
ção	-11.0848
▁virtue	-11.0848
▁episode	-11.0849
▁esta	-11.0849
ario	-11.0853
▁glory	-11.0854
▁logical	-11.0855
oma	-11.0858
▁legislation	-11.0859
▁das	-11.0859
british	-11.0859
▁Cla	-11.0861
HY	-11.0862
gas	-11.0863
▁Au	-11.0865
German	-11.0865
late	-11.0867
▁channels	-11.0872
sim	-11.0872
▁province	-11.0876
vu	-11.0876
West	-11.0878
▁Soon	-11.088
▁Give	-11.0882
▁poverty	-11.0886
▁81	-11.0886
▁sw	-11.0886
▁1998	-11.0888
▁chemical	-11.089
▁cotton	-11.089
week	-11.089
▁prize	-11.0891
▁links	-11.0891
Fl	-11.0892
▁2018	-11.0892
▁Ter	-11.0894
▁Military	-11.0894
ル	-11.0895
▁researchers	-11.0895
shi	-11.0897
▁bitter	-11.0898
▁begins	-11.0899
2023	-11.0899
取	-11.0899
▁behalf	-11.09
▁Benjamin	-11.0901
chan	-11.0902
▁maps	-11.0903
▁Stone	-11.0903
%20	-11.0903
▁dig	-11.0904
▁Jew	-11.0904
	-11.0905
▁Nevertheless	-11.0905
▁tar	-11.0905
▁employment	-11.0906
▁pressed	-11.0909
▁Task	-11.0911
▁substantial	-11.0913
black	-11.0913
▁Could	-11.0914
▁differ	-11.0916
您的	-11.0918
▁posts	-11.0918
▁130	-11.0918
▁institution	-11.0923
▁traveled	-11.0924
▁hopes	-11.0925
▁underlying	-11.0926
▁download	-11.0926
▁ka	-11.0929
▁Fu	-11.093
used	-11.0931
▁abroad	-11.0932
▁composed	-11.0936
gl	-11.094
▁consult	-11.0942
▁88	-11.0943
▁cho	-11.095
join	-11.095
▁Ed	-11.0951
▁74	-11.0951
RC	-11.0952
kr	-11.0953
▁factory	-11.0954
▁Nothing	-11.0957
▁golden	-11.0957
▁Cam	-11.0959
▁icon	-11.0961
▁Light	-11.0968
▁Sk	-11.0968
~	-11.0968
▁teeth	-11.0968
▁sailed	-11.097
aut	-11.097
▁approved	-11.0973
▁waves	-11.0973
EU	-11.0974
AAAD	-11.0975
▁expenses	-11.0978
▁Cho	-11.0978
▁162	-11.0978
PL	-11.0982
XX	-11.0982
▁interior	-11.0984
▁−	-11.0985
Client	-11.0986
▁Kansas	-11.0987
▁stuff	-11.0988
CT	-11.0991
▁Wil	-11.0991
Don	-11.0992
England	-11.0994
Abstract	-11.0997
pine	-11.0999
bon	-11.1001
nor	-11.1002
▁interaction	-11.1005
▁aboard	-11.1005
▁aimed	-11.1008
Can	-11.1009
lem	-11.101
gin	-11.1011
▁printed	-11.1012
One	-11.1013
▁Lenin	-11.1014
▁conviction	-11.1016
AK	-11.1016
▁votre	-11.1017
解	-11.102
▁96	-11.102
▁politicians	-11.1023
_2	-11.1024
发	-11.1024
引	-11.1028
進行	-11.1029
▁cart	-11.103
das	-11.103
▁Cook	-11.103
▁paying	-11.1034
Ej	-11.1036
▁personally	-11.1036
Mk	-11.1038
▁grain	-11.104
SU	-11.1042
▁ein	-11.1044
lp	-11.105
git	-11.1051
PE	-11.1051
—“	-11.1052
▁rebel	-11.1053
▁mill	-11.1055
ли	-11.1055
ode	-11.1056
▁railway	-11.1058
▁precision	-11.1062
Am	-11.1063
▁harsh	-11.1063
水	-11.1069
語	-11.1069
▁contrary	-11.107
mission	-11.107
▁Ol	-11.107
▁moments	-11.1071
Object	-11.1074
Au	-11.1074
▁Dar	-11.1077
▁celebrated	-11.1078
cca	-11.1078
▁13,	-11.1079
▁===	-11.1084
▁Sur	-11.1086
▁ethnic	-11.1087
sten	-11.1087
▁Letters	-11.1089
HO	-11.109
▁Right	-11.1091
sar	-11.1091
aya	-11.1092
▁Case	-11.1093
Size	-11.11
tent	-11.1102
▁Hard	-11.1102
hm	-11.1107
RB	-11.1109
▁badly	-11.1109
▁currency	-11.1111
▁denied	-11.1113
▁arranged	-11.1116
▁Word	-11.1116
▁99	-11.1117
PM	-11.1117
enti	-11.1118
▁regiment	-11.1121
▁assignment	-11.1121
▁tail	-11.1122
▁Fire	-11.1122
動	-11.1123
▁83	-11.1123
game	-11.1123
如果	-11.1124
▁Republicans	-11.1124
▁plays	-11.1125
▁tech	-11.1127
▁venture	-11.1128
用户	-11.1131
▁escaped	-11.1132
▁sha	-11.1133
▁Pu	-11.1135
▁settle	-11.1136
▁virtually	-11.1141
active	-11.1144
▁recover	-11.1145
▁rural	-11.1145
▁highlights	-11.1147
phi	-11.1148
uy	-11.1149
rain	-11.1151
▁commit	-11.1152
した	-11.1152
characters	-11.1153
▁mirror	-11.1153
신	-11.1154
▁84	-11.1155
▁[[	-11.1159
公	-11.116
▁Earl	-11.116
▁Sel	-11.116
▁platoon	-11.1161
enberg	-11.1162
▁stake	-11.1162
GM	-11.1163
▁personalized	-11.1164
With	-11.1165
night	-11.1166
▁Assembly	-11.1166
gE	-11.1166
people	-11.1166
了解	-11.1169
▁uma	-11.1171
FT	-11.1172
▁kings	-11.1172
Element	-11.1175
ア	-11.1176
nc	-11.1181
▁Support	-11.1185
▁82	-11.1185
dding	-11.1185
▁ruler	-11.1186
▁Document	-11.1188
wh	-11.1189
BQ	-11.119
▁literary	-11.1194
▁diet	-11.1195
▁preserve	-11.1195
▁Manager	-11.1197
▁rooms	-11.1202
▁percentage	-11.1203
▁Coast	-11.1204
▁FROM	-11.1207
▁Vanderbilt	-11.1208
▁eleven	-11.1209
ways	-11.1212
EW	-11.1213
▁professionals	-11.1217
▁compromise	-11.1219
▁distress	-11.122
▁wheel	-11.1222
▁exists	-11.1222
▁naturally	-11.1225
▁gl	-11.1226
▁kitchen	-11.1226
ias	-11.1227
▁assured	-11.1227
responsibilities	-11.1227
▁legislature	-11.1227
▁grounds	-11.1228
▁rescue	-11.1228
▁Tar	-11.1231
▁pope	-11.1232
▁recovery	-11.1232
lig	-11.1237
▁Hal	-11.1237
▁appreciate	-11.1239
▁forgotten	-11.1239
▁holy	-11.1242
mod	-11.1242
mul	-11.1243
▁전	-11.1243
▁breast	-11.1245
stock	-11.1245
(0,	-11.1247
▁Sin	-11.1253
▁audit	-11.1255
▁devoted	-11.1256
iser	-11.1257
▁1000	-11.1257
▁400	-11.1259
tie	-11.126
▁harbor	-11.1261
▁dia	-11.1262
WH	-11.1264
▁Asian	-11.1265
Bh	-11.1265
ela	-11.1266
▁democratic	-11.1268
ivity	-11.1269
cade	-11.127
▁consequence	-11.1271
▁thereby	-11.1271
▁findings	-11.1272
我們	-11.1275
▁69	-11.1277
代	-11.1279
▁Conference	-11.1287
▁references	-11.1288
リ	-11.1288
rust	-11.129
▁talent	-11.1291
ва	-11.1292
▁temporary	-11.1292
bor	-11.1293
TU	-11.1293
▁seconds	-11.1294
yp	-11.1295
system	-11.1296
▁Sar	-11.13
▁hung	-11.1301
▁Carter	-11.1302
▁za	-11.1302
▁Personal	-11.1306
▁illegal	-11.1306
Vo	-11.1306
▁fatal	-11.1307
▁settlers	-11.1308
aka	-11.1308
wr	-11.1311
▁Study	-11.1312
pur	-11.1312
▁aux	-11.1313
▁Constantinople	-11.1313
tta	-11.1314
▁excitement	-11.1315
▁Account	-11.1315
driven	-11.1316
▁wars	-11.1317
ically	-11.1317
▁whereas	-11.1317
▁Come	-11.1318
▁AL	-11.1322
▁theories	-11.1322
▁epilogue	-11.1323
front	-11.1324
aba	-11.1325
▁TV	-11.1326
▁sad	-11.1326
▁engineers	-11.1327
▁petition	-11.1328
▁Orleans	-11.1329
知	-11.133
VF	-11.133
▁mask	-11.1334
▁villages	-11.1334
▁provision	-11.1335
MF	-11.1337
cp	-11.1341
▁anywhere	-11.1342
▁14,	-11.1344
▁1942	-11.1348
▁mit	-11.1349
▁comments	-11.1349
▁courts	-11.1349
▁AD	-11.1351
▁adult	-11.1352
▁dogs	-11.1353
▁Class	-11.1353
▁Nazis	-11.1355
▁spoken	-11.1358
iques	-11.136
▁Professor	-11.1361
▁menu	-11.1365
Fu	-11.1366
uster	-11.1367
▁86	-11.1367
rem	-11.1368
▁classical	-11.1373
▁assert	-11.1373
系统	-11.1374
대	-11.1375
lum	-11.1376
mag	-11.1378
▁creates	-11.1378
▁transformed	-11.138
▁altogether	-11.1381
iness	-11.1381
NI	-11.1381
bur	-11.1382
▁Russell	-11.1383
BP	-11.1383
▁Mont	-11.1385
▁predicted	-11.1385
▁teach	-11.1386
▁invention	-11.1386
▁Further	-11.1391
iro	-11.1395
Creative	-11.1396
▁Bush	-11.1397
yu	-11.1397
▁nervous	-11.1397
ime	-11.1401
▁Yu	-11.1403
▁dramatic	-11.1403
▁alcohol	-11.1405
▁scrap	-11.1407
▁enthusiasm	-11.1407
▁license	-11.1408
元	-11.1408
利	-11.141
250	-11.1411
split	-11.1411
50,000	-11.1411
ographic	-11.1413
▁Explain	-11.1415
▁ON	-11.1418
▁hole	-11.1419
▁statue	-11.142
▁Organization	-11.1421
▁Europeans	-11.1422
▁birds	-11.1422
▁1917	-11.1424
ache	-11.1425
QAFwA	-11.1426
列	-11.1427
▁gang	-11.1431
▁churches	-11.1432
▁provisions	-11.1432
▁grateful	-11.1436
lang	-11.1437
Pi	-11.1438
▁guidelines	-11.1438
sti	-11.1439
▁leur	-11.1442
▁Prime	-11.1444
JI	-11.1445
▁mail	-11.1446
率	-11.1447
▁cloth	-11.1448
▁hunting	-11.1448
▁사용	-11.1449
▁20,	-11.1449
CL	-11.1451
Not	-11.1453
ome	-11.1453
▁Ferdinand	-11.1455
▁unusual	-11.1456
rows	-11.1456
▁countryside	-11.1457
▁col	-11.1457
▁representing	-11.1459
plan	-11.1459
195	-11.1462
EBAAAAAAAAAAAAA	-11.1463
▁votes	-11.1467
NT	-11.1467
▁wider	-11.1468
	-11.1469
▁legend	-11.1475
▁entrance	-11.1477
▁tons	-11.1477
▁strain	-11.1478
ush	-11.1479
▁demonstrated	-11.1479
▁surely	-11.1479
▁bio	-11.148
Fr	-11.148
^2	-11.148
▁strict	-11.148
▁emergency	-11.1481
show	-11.1481
▁1918	-11.1481
▁Low	-11.1483
▁robust	-11.1488
▁derived	-11.1489
BO	-11.1489
金	-11.149
▁supporters	-11.1493
▁fil	-11.1496
▁pleased	-11.1497
util	-11.15
lg	-11.1501
TION	-11.1501
▁gate	-11.1501
zk	-11.1503
▁Bon	-11.1504
▁repeat	-11.1508
▁hostile	-11.1509
public	-11.151
▁tired	-11.1512
pet	-11.1512
▁shortly	-11.1512
▁expanded	-11.1512
▁civilians	-11.1512
▁equivalent	-11.1514
▁})	-11.1514
EG	-11.1515
▁labels	-11.1515
trie	-11.1516
▁odd	-11.1517
▁canvas	-11.1522
lat	-11.1524
▁rulers	-11.1525
▁incorporate	-11.1525
▁necessity	-11.1525
introduction	-11.1527
iva	-11.153
▁rebels	-11.1531
▁explosion	-11.1531
▁deployment	-11.1532
ente	-11.1533
▁guys	-11.1537
▁suspicion	-11.1539
▁Action	-11.1541
Ti	-11.1545
▁evolution	-11.1548
bid	-11.155
NB	-11.1553
操作	-11.1556
▁communist	-11.1556
	-11.1558
方式	-11.1558
▁dispute	-11.1559
▁contra	-11.156
▁pi	-11.1565
▁128	-11.1565
DO	-11.1566
▁hum	-11.1566
▁Node	-11.1566
ATION	-11.1567
▁wi	-11.1567
▁wonderful	-11.1568
Message	-11.1571
▁Line	-11.1572
trans	-11.1574
▁Description	-11.1576
▁flowers	-11.1577
▁Cro	-11.1578
▁crash	-11.1581
部	-11.1581
▁1992	-11.1582
▁fears	-11.1584
▁integrate	-11.1586
media	-11.1586
▁Politics	-11.1592
KR	-11.1592
▁Chat	-11.1592
▁abandon	-11.1592
london	-11.1597
▁Angeles	-11.1599
process	-11.1602
boat	-11.1603
▁Reg	-11.1604
QEBAQAAAAAAAA	-11.1605
Lu	-11.1607
▁Apple	-11.1607
kins	-11.1608
oq	-11.1609
▁tin	-11.1611
▁gesture	-11.1611
▁minds	-11.1612
▁125	-11.1612
▁isn	-11.1612
Col	-11.1613
▁Yeah	-11.1614
▁qua	-11.1615
▁79	-11.1615
Sy	-11.1617
▁Show	-11.1619
iers	-11.1619
Kh	-11.162
▁shouted	-11.1621
rp	-11.1624
MM	-11.1626
是否	-11.1627
▁Ham	-11.163
Content	-11.1631
▁voting	-11.1633
about	-11.1637
▁tied	-11.164
▁Brand	-11.1641
▁recipe	-11.1642
▁traditions	-11.1642
▁acc	-11.1647
rah	-11.1647
▁heir	-11.1648
▁Columbia	-11.165
▁choices	-11.1651
▁dreams	-11.1652
▁opinions	-11.1653
▁rarely	-11.1653
▁acknowledge	-11.1653
▁representatives	-11.1654
▁elaborate	-11.1654
▁secured	-11.1655
▁semi	-11.1655
还	-11.1655
实现	-11.1657
▁IP	-11.1662
NP	-11.1665
式	-11.1665
▁validation	-11.1668
▁bid	-11.1668
én	-11.1668
▁realm	-11.167
▁Special	-11.1672
▁album	-11.1673
▁propaganda	-11.1673
-18	-11.1675
▁deposit	-11.1677
▁mat	-11.1677
▁eighteen	-11.1677
FL	-11.1677
▁addresses	-11.1679
된	-11.1679
▁register	-11.168
then	-11.1681
QI	-11.1684
▁favour	-11.1686
業	-11.1687
▁Ste	-11.1688
▁15,	-11.169
▁stepped	-11.1693
▁continues	-11.1694
william	-11.1696
▁Sarah	-11.1697
▁availability	-11.1698
▁stretch	-11.1699
1–2	-11.1699
while	-11.17
▁instant	-11.1701
▁poem	-11.1701
▁football	-11.1702
Sk	-11.1706
▁cable	-11.1707
▁biggest	-11.1708
▁curve	-11.171
▁commerce	-11.171
▁comme	-11.1712
▁contributed	-11.1713
though	-11.1715
▁guests	-11.1716
▁hint	-11.1717
RG	-11.1717
dam	-11.1717
▁Nixon	-11.1718
▁Conclusion	-11.1719
▁7:	-11.1722
▁101	-11.1725
▁precisely	-11.1726
eng	-11.1729
长	-11.1731
▁Labor	-11.1733
186	-11.1734
▁communications	-11.1734
▁Mas	-11.174
▁Analysis	-11.174
robert	-11.1741
▁physician	-11.1743
▁dependent	-11.1744
▁assign	-11.1746
wC	-11.1746
FD	-11.1748
▁rec	-11.1749
▁Mel	-11.175
third	-11.1751
IX	-11.1751
▁cult	-11.1752
Ko	-11.1753
▁attribute	-11.1753
▁exile	-11.1754
▁Iraqi	-11.1754
▁dimensions	-11.1755
▁addressing	-11.1757
▁Hor	-11.1757
▁epi	-11.1758
pack	-11.1758
roman	-11.1761
▁operator	-11.1763
▁Senator	-11.1764
▁sake	-11.1767
Sw	-11.1767
▁browser	-11.1768
▁Eisenhower	-11.1769
▁Webster	-11.177
eck	-11.1772
▁absolutely	-11.1773
▁strip	-11.1774
▁tomorrow	-11.1774
▁alongside	-11.1774
ко	-11.1775
▁Ban	-11.1775
▁crimes	-11.1775
Color	-11.1775
▁whenever	-11.1776
▁Vienna	-11.1777
Column	-11.1778
▁Zo	-11.1778
ifi	-11.178
▁handed	-11.178
▁Zi	-11.1781
▁AM	-11.1781
JR	-11.1783
▁neural	-11.1783
▁burn	-11.1785
▁panel	-11.1786
▁operational	-11.1786
▁reasonable	-11.1787
▁permitted	-11.1787
▁aims	-11.1789
iza	-11.1791
▁Korean	-11.1791
▁161	-11.1793
▁declaration	-11.1795
▁telephone	-11.1795
LD	-11.1798
ê	-11.1801
▁Hotel	-11.1802
▁continuing	-11.1806
▁Ker	-11.1808
测试	-11.1809
also	-11.1809
▁77	-11.181
▁resolved	-11.1811
Index	-11.1812
Thomas	-11.1814
特	-11.1814
▁overwhelming	-11.1816
BR	-11.1816
▁spirits	-11.1817
▁Kh	-11.1818
▁smell	-11.1819
make	-11.1819
rim	-11.182
▁temper	-11.182
ndo	-11.1821
RP	-11.1821
일	-11.1823
▁constraints	-11.1829
▁Between	-11.1831
vie	-11.1832
▁Today	-11.1832
nik	-11.1835
▁payments	-11.1838
smith	-11.1839
▁(17	-11.184
▁heading	-11.184
▁Program	-11.1842
體	-11.1843
random	-11.1844
▁Nicholas	-11.1844
▁Wilhelm	-11.1845
▁corn	-11.1845
▁Abraham	-11.1848
▁agricultural	-11.1848
通	-11.1848
▁expense	-11.1848
▁flesh	-11.185
wind	-11.185
▁NULL	-11.1853
▁fan	-11.1853
Ei	-11.1854
cri	-11.1854
\_\_	-11.1854
ides	-11.1857
▁Phil	-11.1857
JA	-11.1859
▁123	-11.1859
▁Date	-11.186
wl	-11.1861
▁runs	-11.1861
▁Cri	-11.1862
NF	-11.1862
▁diversity	-11.1862
▁lake	-11.1862
▁97	-11.1864
▁spark	-11.1865
ider	-11.1869
call	-11.187
放	-11.1873
▁Place	-11.1874
▁Py	-11.1874
IU	-11.1875
▁association	-11.1875
Comp	-11.1875
▁farming	-11.1876
▁Hay	-11.1877
ن	-11.1878
▁shame	-11.1879
google	-11.1883
▁guilty	-11.1884
ffi	-11.1888
▁republic	-11.1889
Paris	-11.189
dig	-11.1892
”)	-11.1893
center	-11.1895
Product	-11.1896
▁mechanisms	-11.1898
ibility	-11.1899
Pr	-11.1899
▁140	-11.19
//2	-11.1902
▁authentication	-11.1902
▁passengers	-11.1902
イ	-11.1905
astic	-11.1905
▁attorney	-11.191
voir	-11.1912
▁flew	-11.1912
▁89	-11.1912
▁ko	-11.1913
Ij	-11.1915
were	-11.1917
Oc	-11.1918
▁thread	-11.1919
▁blame	-11.1919
▁Fred	-11.1919
NR	-11.192
▁verify	-11.192
▁drama	-11.1923
ching	-11.1923
▁facilitate	-11.1923
▁grace	-11.1923
mic	-11.1924
▁earned	-11.1925
▁survivors	-11.1926
▁blocks	-11.1926
▁Blue	-11.1927
ddle	-11.1931
时间	-11.1937
理解	-11.1941
▁mas	-11.1941
▁Sil	-11.1941
mate	-11.1942
集	-11.1943
▁(2	-11.1943
▁Char	-11.1944
▁reviews	-11.1944
▁Sometimes	-11.1946
▁shook	-11.1947
▁profits	-11.1947
▁Creek	-11.1948
當	-11.1948
QV	-11.1948
HU	-11.1949
▁complained	-11.195
ès	-11.195
VS	-11.1952
▁Greeks	-11.1957
▁separated	-11.1957
LP	-11.1958
qK	-11.1958
▁instruction	-11.196
mt	-11.196
▁shipping	-11.1961
▁videos	-11.1962
ש	-11.1962
點	-11.1964
▁19,	-11.1964
write	-11.1965
写	-11.1966
▁shirt	-11.1968
▁tickets	-11.197
acknowledgments	-11.197
▁defensive	-11.1971
▁manufacturing	-11.1971
▁16,	-11.1972
▁doors	-11.1972
▁Wales	-11.1973
▁artists	-11.1973
▁exploring	-11.1973
chu	-11.1975
▁pitch	-11.1976
Nu	-11.198
▁buying	-11.1981
▁protein	-11.1982
▁está	-11.1982
>`	-11.1982
▁initiatives	-11.1982
lves	-11.1982
▁liquid	-11.1982
反	-11.1983
▁panic	-11.1984
▁chicken	-11.1984
race	-11.1985
▁administrative	-11.1987
▁fra	-11.1987
▁characteristic	-11.1989
▁Common	-11.1992
▁1964	-11.1994
▁1989	-11.1994
▁regulatory	-11.1994
▁1995	-11.1995
▁regional	-11.1996
▁Mus	-11.1997
UB	-11.1999
口	-11.1999
▁mysterious	-11.2001
▁cultures	-11.2006
▁Load	-11.2008
▁Map	-11.2009
using	-11.201
▁accordingly	-11.2011
구	-11.2012
▁Gre	-11.2013
▁initiative	-11.2015
\_\_\_\_\_\_\_\_	-11.2015
Wo	-11.2016
dh	-11.2017
▁integrated	-11.2017
store	-11.2017
на	-11.2017
▁167	-11.2017
Eq	-11.2018
▁fin	-11.202
star	-11.2022
▁Again	-11.2025
▁bot	-11.2026
▁Mad	-11.2026
▁UI	-11.2026
▁asset	-11.2027
▁bra	-11.2027
▁Dun	-11.2029
social	-11.203
▁somewhere	-11.2031
▁hoping	-11.2032
▁);	-11.2032
▁listed	-11.2034
▁emerging	-11.2035
▁scenario	-11.2037
▁pit	-11.2039
▁sports	-11.2039
nate	-11.204
dev	-11.204
may	-11.204
▁allen	-11.2041
▁react	-11.2042
▁afterwards	-11.2042
▁delete	-11.2043
▁hath	-11.2044
▁rice	-11.2046
Ab	-11.2047
▁165	-11.2047
iu	-11.2049
att	-11.2049
▁loaded	-11.205
▁1944	-11.2051
▁Head	-11.2052
▁origins	-11.2055
108	-11.2055
▁grasp	-11.2055
▁bird	-11.2056
ids	-11.2056
Aw	-11.2059
tig	-11.2059
▁Portuguese	-11.206
JP	-11.2061
pq	-11.2063
▁peak	-11.2064
▁Rose	-11.2066
rad	-11.207
▁brutal	-11.2073
▁instances	-11.2074
▁somehow	-11.2074
▁Ken	-11.2076
unk	-11.2077
▁plenty	-11.2077
过	-11.2079
lice	-11.2079
▁【	-11.2079
▁lit	-11.2081
說	-11.2082
▁machines	-11.2083
▁1860	-11.2083
uan	-11.2084
ت	-11.2085
task	-11.2085
▁battery	-11.2086
olo	-11.2087
EH	-11.2087
▁degrees	-11.2089
AAAAAAAAP	-11.209
▁controls	-11.209
ej	-11.2095
Cor	-11.2095
▁1997	-11.2096
▁bones	-11.2096
2+	-11.2096
SF	-11.2097
數	-11.21
▁startup	-11.2101
▁influential	-11.2101
▁Adam	-11.2103
▁circuit	-11.2104
?’	-11.2105
Ve	-11.2105
Sc	-11.2106
▁habits	-11.2107
iw	-11.2115
▁missed	-11.2115
▁Furthermore	-11.2116
内	-11.2117
▁happening	-11.2118
▁AR	-11.2118
▁Florida	-11.2119
eries	-11.212
▁scarcely	-11.212
rill	-11.2121
OU	-11.2122
▁Pass	-11.2123
▁98	-11.2124
▁Regiment	-11.2125
crat	-11.2126
▁у	-11.2127
▁Operation	-11.2128
▁mod	-11.213
▁MO	-11.2131
▁fierce	-11.2132
▁Gulf	-11.2132
▁Several	-11.2134
起	-11.2135
From	-11.2138
▁enabled	-11.2138
ively	-11.214
▁peaceful	-11.214
▁Avenue	-11.2141
▁für	-11.2141
▁Present	-11.2143
▁har	-11.2143
Dis	-11.2146
▁Kur	-11.2146
▁hate	-11.2148
▁Cuba	-11.2149
▁Cra	-11.215
▁contest	-11.2151
▁VII	-11.2151
layer	-11.2154
▁distinguished	-11.2157
aine	-11.2158
▁modest	-11.2159
▁Turkish	-11.216
▁25,	-11.216
gard	-11.2161
▁miss	-11.2161
▁Mau	-11.2162
/>	-11.2163
自己	-11.2165
gua	-11.2166
bol	-11.2167
bri	-11.2167
KE	-11.2167
▁cannon	-11.2168
KU	-11.2169
▁reflection	-11.2169
して	-11.2171
ppe	-11.2174
▁cattle	-11.2177
rio	-11.2177
▁Access	-11.2179
▁nurse	-11.2181
▁steady	-11.2181
)"},{"	-11.2182
home	-11.2182
▁assembly	-11.2183
Af	-11.2183
▁22,	-11.2185
▁1994	-11.2186
Ur	-11.2187
学习	-11.2187
ienne	-11.2188
▁Br	-11.2189
Array	-11.2189
▁wo	-11.219
▁adopt	-11.219
comment	-11.2194
▁technological	-11.2195
▁Gri	-11.2196
SN	-11.22
▁Ur	-11.2201
risk	-11.2201
court	-11.2203
mur	-11.2204
UX	-11.2205
▁92	-11.2205
ка	-11.2206
!’	-11.2209
▁coach	-11.2209
uda	-11.2209
▁1938	-11.2213
▁Turks	-11.2215
▁Fi	-11.2216
4/	-11.2219
▁viewed	-11.222
ester	-11.2221
▁contributions	-11.2222
object	-11.2222
▁Dor	-11.2226
tx	-11.2228
け	-11.223
rist	-11.2231
▁Others	-11.2231
witch	-11.2232
HV	-11.2232
Eh	-11.2233
습니다	-11.2234
email	-11.2234
▁aggressive	-11.2235
▁21,	-11.2236
ote	-11.2237
▁okay	-11.2238
CU	-11.2239
false	-11.2239
▁amounts	-11.224
present	-11.2242
ă	-11.2244
bridge	-11.2244
▁1991	-11.2245
▁17,	-11.2248
▁originally	-11.2253
▁ال	-11.2254
▁withdrawal	-11.2254
▁Norman	-11.2255
ques	-11.2257
bat	-11.2257
▁sm	-11.226
▁drinking	-11.2264
▁Islands	-11.2264
▁SP	-11.2265
▁Article	-11.227
▁dlg	-11.2271
4+	-11.2274
▁dominated	-11.2275
NK	-11.2276
▁mock	-11.2277
▁disappeared	-11.2281
▁SA	-11.2282
JH	-11.2283
hour	-11.2285
una	-11.2288
▁vent	-11.229
avi	-11.2291
lb	-11.2292
아	-11.2292
▁profound	-11.2292
6/	-11.2294
▁unlike	-11.2294
GC	-11.2296
▁(“	-11.2296
▁involvement	-11.2296
secret	-11.2297
▁conscious	-11.2298
▁ven	-11.2298
▁attributes	-11.2299
▁doctors	-11.23
學習	-11.2303
▁mild	-11.2303
▁observation	-11.2303
▁indicates	-11.2304
▁wing	-11.2305
▁Lawrence	-11.2308
UV	-11.2308
union	-11.2308
▁Horse	-11.2309
▁Super	-11.231
▁ownership	-11.2312
▁Alice	-11.2314
▁cont	-11.2314
很	-11.2314
299	-11.2316
oh	-11.2317
mir	-11.2322
▁achieving	-11.2322
roosevelt	-11.2323
▁kids	-11.2323
ws	-11.2324
ania	-11.2324
▁scar	-11.2325
▁Fair	-11.2326
▁AWS	-11.2335
▁cheese	-11.2335
▁restore	-11.2338
▁lesson	-11.2338
AGE	-11.2338
▁immigration	-11.2341
▁scores	-11.2341
▁resulted	-11.2341
▁func	-11.2342
체	-11.2342
Hy	-11.2342
▁Standard	-11.2343
Ot	-11.2345
▁reduction	-11.2347
▁127	-11.2347
insert	-11.2349
▁Thanks	-11.2353
▁20.	-11.2353
▁bonds	-11.2354
▁cave	-11.2356
pK	-11.2358
▁hang	-11.2358
ines	-11.2359
▁fool	-11.236
▁hills	-11.2362
ila	-11.2363
MT	-11.2364
函数	-11.2365
▁citizen	-11.2367
▁tension	-11.2368
lc	-11.2368
mates	-11.2371
DU	-11.2371
▁DO	-11.2373
license	-11.2373
cell	-11.2374
š	-11.2374
ת	-11.2375
Uk	-11.2377
▁Max	-11.2378
mile	-11.238
API	-11.2382
1.0	-11.2383
▁1861	-11.2384
rive	-11.2384
▁Ann	-11.2385
▁Nov	-11.2388
▁174	-11.2389
▁linear	-11.2392
ELL	-11.2393
UK	-11.2395
lv	-11.2396
RN	-11.2396
▁sixteen	-11.2399
KG	-11.24
▁publicly	-11.24
dos	-11.2401
▁marks	-11.2402
▁involving	-11.2402
▁mutual	-11.2404
於	-11.2405
Vl	-11.2408
inger	-11.2408
▁sailors	-11.2409
▁desk	-11.241
▁ears	-11.241
▁Fleet	-11.2412
▁boundaries	-11.2412
▁Sol	-11.2413
处理	-11.2414
▁boost	-11.2415
▁Culture	-11.2415
▁discount	-11.2416
▁servant	-11.2417
▁peer	-11.2417
ook	-11.2423
itter	-11.2424
▁Event	-11.2424
QAGQAAA	-11.2427
pal	-11.2428
▁250	-11.2429
▁Wallace	-11.2429
▁persona	-11.2431
QH	-11.2431
gram	-11.2437
▁pur	-11.2438
▁reverse	-11.244
lab	-11.244
▁tongue	-11.2442
▁rating	-11.2442
▁Nation	-11.2443
▁jail	-11.2443
gj	-11.2444
▁SE	-11.2448
Ak	-11.2451
▁funding	-11.2451
▁Ce	-11.2454
utter	-11.2454
▁discussions	-11.2455
lash	-11.2458
流	-11.246
▁acted	-11.2462
First	-11.2463
▁Cold	-11.2463
α	-11.2466
▁imposed	-11.2466
▁18,	-11.2469
inch	-11.2469
▁1984	-11.2469
rest	-11.247
▁impressed	-11.2471
▁regulation	-11.2473
▁fourteen	-11.2474
613	-11.2477
these	-11.2479
dent	-11.2485
å	-11.2485
▁Scottish	-11.2485
format	-11.2486
doc	-11.2486
▁flexible	-11.2487
▁obliged	-11.249
▁Week	-11.249
▁76	-11.2491
'])	-11.2492
▁teachers	-11.2492
▁interviews	-11.2492
▁inventory	-11.2495
▁layers	-11.2495
Row	-11.2495
RF	-11.2495
VV	-11.2495
iga	-11.2495
−	-11.2495
react	-11.2496
▁Athens	-11.2496
▁clinical	-11.2497
ello	-11.2499
Event	-11.25
phone	-11.2501
▁1985	-11.2504
▁opponents	-11.2504
GPT	-11.2504
▁Rule	-11.2504
▁Taliban	-11.2506
lich	-11.2507
TP	-11.2507
atter	-11.2507
▁2016	-11.2507
▁조	-11.2509
▁mess	-11.2511
Ver	-11.2512
▁149	-11.2513
▁Services	-11.2514
Token	-11.2515
▁savage	-11.2517
imo	-11.2519
▁locations	-11.252
▁87	-11.252
Cambridge	-11.252
away	-11.2521
ref	-11.2523
Map	-11.2524
189	-11.2524
Sl	-11.2526
▁truck	-11.2527
MV	-11.2529
▁1948	-11.253
▁castle	-11.2532
▁Beau	-11.2536
▁improvements	-11.2537
▁starts	-11.2539
Status	-11.2539
▁Cabinet	-11.254
▁remarked	-11.254
tter	-11.2542
KW	-11.2542
▁offices	-11.2542
工作	-11.2543
Ke	-11.2543
Py	-11.2545
ów	-11.2545
▁78	-11.2546
▁intelligent	-11.2547
will	-11.2547
▁Son	-11.2548
▁Anderson	-11.2551
+3	-11.2551
▁copies	-11.2552
tech	-11.2553
San	-11.2554
▁metaphor	-11.2554
cj	-11.2558
▁binary	-11.2558
▁broader	-11.2559
▁divide	-11.2561
▁Joan	-11.2561
FP	-11.2561
amente	-11.2563
▁raising	-11.2565
不同	-11.2565
AAAAAAAAAA	-11.2566
▁Non	-11.2566
cies	-11.2568
▁fond	-11.2569
gor	-11.2569
english	-11.2572
dem	-11.2572
rag	-11.2574
hon	-11.2575
▁lips	-11.2575
▁Morse	-11.2576
▁unlikely	-11.2576
Uq	-11.2579
"],"	-11.2581
.),	-11.2582
▁requested	-11.2582
ß	-11.2583
WA	-11.2583
DF	-11.2583
▁concerning	-11.2584
▁routes	-11.2584
▁ibid	-11.2586
▁stages	-11.2586
▁1987	-11.2587
▁Bryan	-11.2594
▁bearing	-11.2594
▁patron	-11.2595
▁0.5	-11.2597
▁hyper	-11.2598
shot	-11.2598
▁2014	-11.2599
ND	-11.26
▁checks	-11.26
tail	-11.2602
▁mechanism	-11.2604
account	-11.2605
eurs	-11.2606
▁patent	-11.2608
ori	-11.2609
▁sch	-11.2614
CM	-11.2614
vant	-11.2615
▁ceremony	-11.2615
▁earliest	-11.262
▁Railroad	-11.2621
▁eine	-11.2622
▁23,	-11.2623
▁integrity	-11.2623
▁exploration	-11.2623
▁Guard	-11.2626
VO	-11.2626
▁struct	-11.2628
mie	-11.2629
RV	-11.2629
▁engines	-11.263
▁Hoover	-11.263
Eg	-11.2631
295	-11.2631
▁occurs	-11.2634
▁유	-11.2636
▁swept	-11.2639
igen	-11.2639
project	-11.264
Qf	-11.264
▁plea	-11.2641
▁admit	-11.2641
▁View	-11.2642
stead	-11.2643
▁ritual	-11.2644
▁vessel	-11.2645
系統	-11.2646
▁ammunition	-11.2646
ür	-11.265
3–4	-11.2651
OK	-11.2651
▁bombs	-11.2652
round	-11.2652
▁28,	-11.2652
▁155	-11.2653
ost	-11.2653
▁wit	-11.2654
▁obligations	-11.2655
OF	-11.2655
▁ladies	-11.2655
▁insight	-11.2656
▁1993	-11.2657
게	-11.2657
▁span	-11.2657
2–3	-11.2658
æ	-11.2659
▁Function	-11.2659
▁respectively	-11.2659
▁brigade	-11.2661
▁CON	-11.2666
▁ruling	-11.2666
ALL	-11.2668
▁suspect	-11.2668
します	-11.2669
block	-11.267
▁entering	-11.2672
vii	-11.2678
column	-11.268
iya	-11.268
▁crops	-11.2681
▁colour	-11.2681
▁pepper	-11.2682
temp	-11.2684
做	-11.2685
▁mal	-11.2686
▁gentlemen	-11.2687
XI	-11.2687
▁Negro	-11.2687
概念	-11.2688
▁Process	-11.2688
▁coin	-11.269
▁assembled	-11.2691
▁functional	-11.2695
▁rely	-11.2695
▁Source	-11.2695
▁corruption	-11.2695
▁Seven	-11.2697
▁vulnerable	-11.2697
着	-11.27
▁candidates	-11.27
BSicon	-11.2703
先	-11.2703
▁wage	-11.2704
▁uncertainty	-11.2708
▁quarters	-11.2709
total	-11.2709
▁agencies	-11.2713
▁Ensure	-11.2713
heim	-11.2716
URL	-11.2717
kane	-11.2721
▁Has	-11.2721
mé	-11.2723
▁News	-11.2723
rating	-11.2724
▁Azure	-11.2724
▁Crown	-11.2727
▁illustrate	-11.2728
▁1919	-11.2728
tier	-11.2732
使	-11.2733
▁Practice	-11.2734
光	-11.2735
DM	-11.2737
▁OR	-11.2738
▁suspected	-11.274
▁skilled	-11.274
▁Chase	-11.2741
▁kinds	-11.2742
▁duration	-11.2744
▁accurately	-11.2746
▁auf	-11.2747
▁Ze	-11.2747
▁unto	-11.2749
GU	-11.275
▁cooperation	-11.2751
▁thoroughly	-11.2752
ended	-11.2753
entities	-11.2755
▁Understanding	-11.2756
▁VIII	-11.2758
params	-11.2762
▁clause	-11.2765
DP	-11.2766
▁actors	-11.2769
nov	-11.277
▁Kan	-11.2771
技术	-11.2773
▁Kentucky	-11.2773
▁CSS	-11.2774
101	-11.2774
/20	-11.2776
▁Print	-11.2776
Jh	-11.2778
▁Byzantine	-11.2779
gk	-11.2781
wor	-11.2784
▁bath	-11.2785
▁gentle	-11.2785
▁guy	-11.2789
色	-11.279
你的	-11.2793
制	-11.2794
float	-11.2798
▁analyzing	-11.2799
only	-11.28
立	-11.2803
▁acknowledged	-11.2803
▁acknowledgments	-11.2806
▁visiting	-11.2807
▁extend	-11.2809
▁ending	-11.2811
tine	-11.2811
▁peculiar	-11.2812
▁woods	-11.2813
▁Machine	-11.2814
▁제	-11.2814
从	-11.2814
▁trusted	-11.2815
▁integer	-11.2816
cion	-11.2816
▁ה	-11.2817
AX	-11.2817
},	-11.2818
▁110	-11.282
lim	-11.2821
▁Yo	-11.2821
▁summarize	-11.2822
▁Gandhi	-11.2823
▁wedding	-11.2824
▁breakfast	-11.2825
VN	-11.2828
▁silk	-11.283
想	-11.2832
▁pray	-11.2832
UW	-11.2833
▁24,	-11.2835
▁Town	-11.2836
▁153	-11.2836
dies	-11.2837
▁submit	-11.2837
▁Five	-11.2838
▁stroke	-11.2841
▁childhood	-11.2844
nar	-11.2845
nah	-11.2848
▁profession	-11.2849
▁laugh	-11.2849
▁prioritize	-11.285
▁PRO	-11.2851
cra	-11.2853
abstract	-11.2855
aga	-11.2855
Eu	-11.2855
让	-11.2857
bla	-11.2858
person	-11.2858
▁Pearl	-11.2858
gf	-11.2861
▁Walker	-11.2863
▁diseases	-11.2863
Mh	-11.2863
讓	-11.2863
▁alarm	-11.2864
▁este	-11.2864
kf	-11.2867
wig	-11.2867
oth	-11.2868
Form	-11.2869
▁Gall	-11.287
▁Ki	-11.287
▁qualities	-11.287
▁instinct	-11.2872
▁constructed	-11.2873
JW	-11.2874
dz	-11.2874
▁carriage	-11.2875
ait	-11.2877
▁drugs	-11.2879
Python	-11.288
¬	-11.288
▁Newton	-11.2885
▁county	-11.2885
▁threshold	-11.2886
▁pandas	-11.289
▁warriors	-11.2891
/10	-11.2892
vision	-11.2893
Cy	-11.2894
commun	-11.2898
▁persuaded	-11.2898
▁Inc	-11.2899
▁creatures	-11.29
▁Risk	-11.2901
pher	-11.2901
▁protocol	-11.2902
三	-11.2904
▁submission	-11.2904
▁farther	-11.2904
▁brick	-11.2906
▁Panama	-11.2907
commerce	-11.2911
▁establishing	-11.2913
▁dr	-11.2914
▁participate	-11.2915
NU	-11.2916
▁propose	-11.2918
▁Guide	-11.2919
Edit	-11.292
▁ruin	-11.2923
▁lessons	-11.2923
shape	-11.2924
}}	-11.2925
▁united	-11.2926
▁Century	-11.2926
dt	-11.2926
▁compute	-11.2926
3+	-11.2927
duct	-11.2929
▁1961	-11.293
Qc	-11.293
Web	-11.293
▁canal	-11.2932
modified	-11.2936
Path	-11.2937
這個	-11.2939
▁observe	-11.294
▁158	-11.2941
span	-11.2941
▁FBI	-11.2941
miss	-11.2943
▁whi	-11.2943
機	-11.2945
▁${	-11.2946
aki	-11.295
hop	-11.2951
encode	-11.2954
由	-11.2955
É	-11.2956
Ep	-11.2957
pred	-11.296
bank	-11.2961
▁Muhammad	-11.2963
▁dev	-11.2964
nx	-11.2965
quel	-11.2966
▁Policy	-11.2969
▁0.1	-11.2969
▁innocent	-11.2973
만	-11.2973
▁pipe	-11.2973
▁marine	-11.2976
학	-11.2976
▁{}	-11.2978
▁belonged	-11.2979
▁entitled	-11.298
▁8:	-11.2981
▁2013	-11.2983
än	-11.2984
▁wives	-11.2985
▁Friday	-11.2985
▁portfolio	-11.2989
LM	-11.299
Jx	-11.2992
▁Infantry	-11.2994
Manager	-11.2994
▁mono	-11.2995
▁reveal	-11.2997
▁Mongol	-11.2997
น	-11.2998
pol	-11.2998
0000	-11.2998
▁pretend	-11.2999
WI	-11.3
kE	-11.3001
▁Miller	-11.3004
▁perspectives	-11.3004
▁attitudes	-11.3006
▁129	-11.3008
▁tan	-11.3009
192	-11.3011
▁translated	-11.3011
▁san	-11.3012
oe	-11.3012
▁painted	-11.3013
udge	-11.3013
kj	-11.3014
ICA	-11.3015
▁statistics	-11.3016
▁sport	-11.3018
333	-11.302
▁CEO	-11.3022
HH	-11.3024
▁Throughout	-11.3024
▁accomplished	-11.3024
▁impressive	-11.3029
128	-11.303
▁inevitable	-11.303
▁efficiently	-11.303
▁Mill	-11.3034
▁ecosystem	-11.3036
▁massacre	-11.3039
para	-11.3044
sea	-11.3044
▁Bureau	-11.3046
boy	-11.3048
▁1900	-11.305
YY	-11.305
▁fees	-11.3051
▁Aug	-11.3054
XT	-11.3056
bury	-11.3059
▁lacked	-11.3059
▁tip	-11.306
▁vain	-11.3061
QRAQAA	-11.3063
▁riding	-11.3064
▁159	-11.3066
▁Enter	-11.3067
▁examination	-11.3067
▁poll	-11.3068
区	-11.3069
▁Zionist	-11.307
additional	-11.3071
107	-11.3071
每	-11.3072
▁Moses	-11.3073
▁midst	-11.3073
▁organize	-11.3074
▁characterized	-11.3076
▁cos	-11.3076
▁minimize	-11.3077
bach	-11.3077
change	-11.3077
Er	-11.3078
▁mob	-11.3081
▁testimony	-11.3084
▁Tim	-11.3084
以及	-11.3084
真	-11.3087
▁Bad	-11.3088
hun	-11.3088
▁scattered	-11.309
▁unity	-11.3091
▁provinces	-11.3092
▁cruel	-11.3093
▁navigation	-11.3095
▁leap	-11.3095
rock	-11.31
▁shopping	-11.3101
▁behaviors	-11.3103
rz	-11.3104
CN	-11.3105
▁optimal	-11.3105
▁Ancient	-11.3108
care	-11.3108
▁##	-11.3109
▁Person	-11.311
mn	-11.3111
▁Im	-11.3111
Dy	-11.3113
erie	-11.3114
rap	-11.3115
Az	-11.3115
ر	-11.3115
Controller	-11.3117
▁searching	-11.3117
▁branches	-11.3118
sample	-11.3119
▁27,	-11.3119
▁HTTP	-11.3119
cour	-11.3119
▁declare	-11.3119
▁precise	-11.312
▁provider	-11.3121
하기	-11.3121
MC	-11.3121
university	-11.3121
▁ignored	-11.3122
anza	-11.3124
▁2024	-11.3127
8–9	-11.3128
▁Private	-11.3129
market	-11.3129
▁workflow	-11.3129
▁hypothesis	-11.313
▁strengthen	-11.313
▁songs	-11.3132
▁Sim	-11.3132
188	-11.3133
greg	-11.3133
▁170	-11.3133
▁Johnston	-11.3134
Create	-11.3135
▁periods	-11.3136
ingly	-11.314
▁performing	-11.3141
JC	-11.3142
WN	-11.3143
▁chaos	-11.3143
DC	-11.3145
QS	-11.3146
▁21.	-11.3148
.*	-11.3149
auth	-11.3151
▁emerge	-11.3151
▁migration	-11.3152
▁submarine	-11.3153
live	-11.3154
▁evident	-11.3155
▁Address	-11.3156
▁Zu	-11.3156
▁135	-11.3157
▁rein	-11.3158
▁verb	-11.3159
comp	-11.3159
zar	-11.3161
▁layout	-11.3162
▁blend	-11.3162
▁Tor	-11.3162
▁mayor	-11.3163
▁harvest	-11.3167
▁sklearn	-11.3167
▁2011	-11.3169
▁withdraw	-11.3169
▁Unlike	-11.3169
255	-11.317
▁Afghan	-11.3174
▁Natural	-11.3174
xAAUE	-11.3177
Ri	-11.3178
qr	-11.3178
▁funeral	-11.318
quis	-11.3181
주	-11.3182
command	-11.3183
5–6	-11.3184
▁converted	-11.3184
)\	-11.3185
ige	-11.3185
▁154	-11.3186
▁Saturday	-11.3186
▁rewards	-11.3189
▁listened	-11.3189
mean	-11.3194
▁quietly	-11.3195
▁cream	-11.3197
▁blast	-11.3198
▁Puritan	-11.3198
▁autumn	-11.3199
▁exhausted	-11.32
▁Problem	-11.3202
_7	-11.3206
did	-11.3206
▁126	-11.3207
imon	-11.3208
▁participation	-11.3209
▁22.	-11.321
CQ	-11.321
▁Community	-11.3212
▁일	-11.3213
品	-11.3213
▁clock	-11.3213
fold	-11.3213
pose	-11.3213
▁suicide	-11.3214
▁historic	-11.3214
▁Row	-11.3214
team	-11.3215
aan	-11.3217
Ax	-11.322
▁Indies	-11.3222
▁lover	-11.3224
GS	-11.3224
hir	-11.3226
▁condemned	-11.3226
Iy	-11.3226
▁bloody	-11.3228
ogni	-11.3229
場合	-11.3229
▁Eu	-11.323
rent	-11.3231
▁fer	-11.3232
▁trap	-11.3235
Sm	-11.3237
▁Commander	-11.3238
minded	-11.3238
▁esp	-11.3239
▁creature	-11.3239
▁pale	-11.324
▁2012	-11.3241
▁NO	-11.3241
▁jump	-11.3243
▁hardware	-11.3245
د	-11.3246
tum	-11.3246
▁26,	-11.3247
sort	-11.3248
▁Price	-11.3249
▁Gro	-11.325
nj	-11.3251
MD	-11.3251
▁spin	-11.3251
▁rev	-11.3252
tti	-11.3255
▁resort	-11.3256
점	-11.3256
continu	-11.3256
▁Ross	-11.3257
▁Philippines	-11.3257
BD	-11.3258
▁156	-11.3259
guard	-11.3259
▁1965	-11.326
296	-11.326
▁discusses	-11.3261
▁minority	-11.3261
▁hook	-11.3262
▁nationalist	-11.3262
▁Share	-11.3265
▁Prompt	-11.3266
▁violation	-11.3266
▁Tell	-11.3267
ô	-11.3269
md	-11.3271
inal	-11.3271
▁instrument	-11.3272
▁happens	-11.3273
ress	-11.3274
▁Seward	-11.3274
▁stuck	-11.3275
onne	-11.3275
▁spite	-11.3276
▁completion	-11.3276
agan	-11.3277
▁pricing	-11.3277
ures	-11.3278
▁convenient	-11.328
▁fabric	-11.328
▁abstract	-11.328
▁commands	-11.3281
▁Turkey	-11.3286
▁Tro	-11.3288
▁30,	-11.3288
igh	-11.3288
▁Den	-11.3291
да	-11.3292
World	-11.3295
▁cit	-11.3298
▁colonel	-11.3298
	-11.3298
▁Wy	-11.3298
▁outbreak	-11.33
▁institutional	-11.3301
hole	-11.3301
ро	-11.3302
▁injury	-11.3303
▁/>	-11.3304
WV	-11.3304
▁obstacles	-11.3304
kq	-11.3304
QAFA	-11.3305
▁indicating	-11.3305
MAN	-11.3305
})	-11.3307
▁customs	-11.3308
▁pump	-11.331
▁nerve	-11.331
▁cache	-11.331
gle	-11.3311
aq	-11.3312
upp	-11.3315
▁105	-11.3315
▁mixture	-11.3317
▁Internet	-11.3317
uni	-11.3318
▁styles	-11.3319
country	-11.3321
▁priests	-11.3321
▁endpoint	-11.3323
▁Ye	-11.3327
常	-11.3332
lev	-11.3335
▁fairly	-11.3336
▁dialogue	-11.3338
toria	-11.3339
只	-11.3339
6–7	-11.334
▁broadcast	-11.3343
WW	-11.3344
▁hanging	-11.3345
▁Mother	-11.3345
▁isolated	-11.3345
filter	-11.3347
david	-11.3352
▁terrorist	-11.3353
western	-11.3355
Sheet	-11.3356
IH	-11.3356
gie	-11.3357
▁cow	-11.3358
▁housing	-11.336
▁124	-11.336
设计	-11.3361
SB	-11.3363
▁reasoning	-11.3364
▁Media	-11.3365
▁touched	-11.3371
AAAAAAAAAAA	-11.3371
123	-11.3372
flu	-11.3374
edge	-11.3374
▁turns	-11.3375
FK	-11.3377
Ut	-11.3378
▁pleasant	-11.3379
▁gene	-11.3379
match	-11.338
像	-11.3382
▁syn	-11.3383
qi	-11.3384
SL	-11.3384
▁Kar	-11.3384
▁diagnosis	-11.3384
▁diagram	-11.3385
▁169	-11.3386
ב	-11.3386
原	-11.3387
▁Clinton	-11.3388
▁Jud	-11.339
▁proposition	-11.3393
▁gear	-11.3395
ivo	-11.3396
▁organ	-11.3396
▁171	-11.3397
▁diff	-11.3399
posed	-11.34
crit	-11.34
ZH	-11.3403
▁refugees	-11.3403
▁endless	-11.3405
iah	-11.3407
▁exposure	-11.3407
수	-11.3407
AJ	-11.3407
▁resume	-11.3409
▁oc	-11.3409
▁Alaska	-11.3411
▁progressive	-11.3412
shed	-11.3416
▁Gil	-11.3416
stro	-11.3416
▁Future	-11.3418
corp	-11.3419
▁prayer	-11.342
▁escort	-11.3421
▁cabin	-11.3421
▁preparation	-11.3422
itis	-11.3424
PD	-11.3425
▁inspiration	-11.3426
▁keys	-11.3426
▁tobacco	-11.3428
▁bug	-11.343
▁Does	-11.3431
7/	-11.3431
▁Plato	-11.3435
▁essentially	-11.3436
▁excuse	-11.3436
▁boom	-11.3437
▁1979	-11.3439
▁complicated	-11.3441
][	-11.3441
▁Offer	-11.3442
▁weakness	-11.3442
▁composition	-11.3443
▁1943	-11.3444
makers	-11.3444
PG	-11.3444
▁ambition	-11.3445
▁contribution	-11.3446
▁ingredients	-11.3447
▁Choose	-11.3447
▁concise	-11.3448
▁despair	-11.3449
▁dominant	-11.3452
▁irre	-11.3453
▁23.	-11.3454
▁champion	-11.3455
▁attracted	-11.3455
▁être	-11.3456
rl	-11.3458
Je	-11.3458
▁145	-11.3458
▁reserve	-11.3461
件	-11.3461
lines	-11.3462
▁remind	-11.3464
TF	-11.3465
rar	-11.3465
▁correspondence	-11.3466
▁Reagan	-11.3467
110	-11.3468
VY	-11.3469
▁Family	-11.3469
Hz	-11.3469
▁studying	-11.3469
▁finger	-11.3471
▁speeches	-11.3472
▁Save	-11.3472
▁Sergeant	-11.3472
▁Hopkins	-11.3473
▁Pepys	-11.3473
▁generating	-11.3474
▁shoulders	-11.3474
▁anchor	-11.3475
▁neighbors	-11.3477
▁producing	-11.3479
▁Canal	-11.348
RL	-11.348
ridge	-11.348
▁о	-11.3481
embr	-11.3482
SON	-11.3483
▁revised	-11.3483
Ek	-11.3483
▁equality	-11.3483
local	-11.3484
▁praise	-11.3485
French	-11.3486
▁주	-11.3486
▁Monday	-11.3487
▁retired	-11.3487
▁Rob	-11.3489
▁Director	-11.3489
▁122	-11.349
IY	-11.349
▁ministers	-11.3491
rod	-11.3492
电	-11.3493
▁Cy	-11.3495
sley	-11.3496
ouch	-11.3496
cli	-11.3496
enne	-11.3496
wal	-11.3497
▁header	-11.3498
ils	-11.35
allen	-11.35
Let	-11.3501
▁increases	-11.3502
▁rivers	-11.3502
▁seventeenth	-11.3503
▁saving	-11.3503
hall	-11.3504
及	-11.3506
uo	-11.3509
Context	-11.351
▁Jordan	-11.3511
ZW	-11.3511
rom	-11.3513
▁121	-11.3514
▁Down	-11.3515
185	-11.3517
lace	-11.3517
▁decree	-11.3517
AEAAAAAAA	-11.3521
▁1967	-11.3521
▁¿	-11.3521
▁authorized	-11.3522
間	-11.3524
▁Language	-11.3525
lain	-11.3526
レ	-11.3527
ría	-11.3527
功能	-11.3528
▁squad	-11.3528
形	-11.353
eq	-11.3531
▁Robinson	-11.3531
▁clan	-11.3532
phe	-11.3533
▁Pri	-11.3534
▁ties	-11.3535
scores	-11.3537
▁photograph	-11.354
Hw	-11.3547
▁Bat	-11.3547
including	-11.3547
▁Constantine	-11.3548
▁tide	-11.3549
▁cited	-11.3551
▁laughed	-11.3551
▁cas	-11.3554
apa	-11.3555
TL	-11.3559
▁Custom	-11.3559
2021	-11.356
▁prediction	-11.3561
▁Hell	-11.3563
▁134	-11.3564
▁relate	-11.3565
ould	-11.3567
french	-11.3569
break	-11.357
应	-11.3571
▁graphic	-11.3571
▁vers	-11.3572
vio	-11.3573
++)	-11.3573
ESS	-11.3576
▁thirteen	-11.3576
Order	-11.3577
▁elder	-11.3578
ensi	-11.3578
iste	-11.3578
450	-11.3578
▁Deal	-11.3579
▁Rather	-11.358
▁NY	-11.358
ע	-11.3581
▁bare	-11.3581
▁certificate	-11.3582
回答	-11.3582
cot	-11.3583
▁targeted	-11.3583
选择	-11.3583
illo	-11.3586
ured	-11.3587
AV	-11.3588
Ty	-11.3592
▁ambitious	-11.3593
▁widow	-11.3594
+4	-11.3598
▁fonction	-11.3599
▁ram	-11.3599
▁dictionary	-11.36
direct	-11.3603
cos	-11.3605
▁recovered	-11.3605
303	-11.3606
▁Nature	-11.3606
▁Collection	-11.3607
▁suggestion	-11.3609
▁보	-11.361
WO	-11.3611
▁slaughter	-11.3612
298	-11.3613
▁Hudson	-11.3614
▁(1)	-11.3614
omi	-11.3616
▁Hindu	-11.3617
▁pré	-11.3618
▁dismissed	-11.3618
▁к	-11.362
表示	-11.3621
▁concert	-11.3622
▁Mit	-11.3625
▁mining	-11.3626
▁Train	-11.3628
▁exercises	-11.3628
▁volunteers	-11.3629
elling	-11.363
▁organisation	-11.363
▁acceptance	-11.3631
▁McClellan	-11.3633
yer	-11.3633
▁manual	-11.3635
▁opera	-11.3638
gt	-11.3638
▁Palace	-11.364
▁www	-11.3642
▁eighty	-11.3643
cum	-11.3643
licenses	-11.3645
▁alter	-11.3646
▁Dal	-11.3646
▁Angel	-11.3646
ño	-11.3647
▁attractive	-11.3648
president	-11.3649
Va	-11.365
Cu	-11.365
▁keywords	-11.365
dk	-11.3653
▁covering	-11.3654
▁sheep	-11.3655
const	-11.3655
▁nobody	-11.3659
▁romantic	-11.366
viv	-11.366
▁restored	-11.3662
▁roar	-11.3662
ARD	-11.3663
ike	-11.3666
▁justify	-11.3667
▁Much	-11.3667
▁simultaneously	-11.3671
Now	-11.3672
▁holiday	-11.3673
University	-11.3675
▁distinguish	-11.3675
▁populations	-11.3677
nte	-11.3677
arian	-11.3677
ả	-11.3681
▁correspond	-11.3681
7–8	-11.3682
▁concrete	-11.3682
支持	-11.3683
VD	-11.3686
▁sole	-11.3686
Page	-11.3687
civil	-11.3687
+2	-11.3688
▁compete	-11.3688
ifier	-11.3688
▁lasted	-11.3689
▁indicated	-11.3689
▁packed	-11.3689
Philip	-11.369
▁Pla	-11.3691
▁Forest	-11.3694
QY	-11.3695
▁Error	-11.3697
drop	-11.3697
▁directions	-11.3697
wait	-11.3698
▁considerations	-11.3699
端	-11.3699
▁struggling	-11.3701
yt	-11.3702
▁Marie	-11.3707
pat	-11.3708
▁painful	-11.3709
▁sank	-11.3709
ín	-11.371
QAFQ	-11.3711
▁flavor	-11.3713
▁pilots	-11.3716
abi	-11.3716
Louis	-11.3719
China	-11.372
▁cv	-11.372
▁CH	-11.3721
▁Leo	-11.3722
VU	-11.3724
month	-11.3726
所有	-11.3726
▁за	-11.3726
DH	-11.3727
▁therapy	-11.3727
▁Manhattan	-11.373
▁tre	-11.3732
aunt	-11.3734
進	-11.3735
370	-11.3736
iate	-11.3736
QAGAA	-11.3736
▁어	-11.3737
▁dive	-11.3738
▁theme	-11.3741
▁1962	-11.3741
▁scenes	-11.3742
图	-11.3744
▁pub	-11.3745
▁1963	-11.3747
▁fifth	-11.3749
▁peoples	-11.375
▁disputes	-11.3752
▁shoes	-11.3754
▁Baker	-11.3755
rog	-11.3756
▁USA	-11.3757
▁Lang	-11.3759
wed	-11.376
TC	-11.3761
▁conventional	-11.3761
their	-11.3761
▁pictures	-11.3762
▁Experience	-11.3762
▁legacy	-11.3764
▁torn	-11.3765
Im	-11.3767
▁prim	-11.3767
zt	-11.3767
▁Select	-11.3769
▁handsome	-11.3771
cross	-11.3773
▁bien	-11.3774
BJ	-11.3774
▁cooking	-11.3774
HW	-11.3775
pid	-11.3775
▁faithful	-11.3776
▁clergy	-11.3776
3-4	-11.3777
▁consists	-11.3778
▁00	-11.3778
▁Job	-11.3779
christian	-11.3779
▁staying	-11.3779
▁Margaret	-11.3781
▁rope	-11.3781
▁corrupt	-11.3782
▁worker	-11.3782
▁109	-11.3784
Vy	-11.3784
▁Find	-11.3786
▁YouTube	-11.3787
▁imagined	-11.3787
Position	-11.3788
▁mystery	-11.3788
▁Luc	-11.3788
▁enabling	-11.379
▁BE	-11.3795
▁adoption	-11.3795
vm	-11.3797
▁Fre	-11.3798
tp	-11.3799
通常	-11.3801
▁peasants	-11.3802
▁1983	-11.3803
▁pistol	-11.3805
wk	-11.3807
▁terrain	-11.3808
▁Communication	-11.3809
▁Princeton	-11.3809
ть	-11.3809
cott	-11.3811
▁keen	-11.3812
▁meaningful	-11.3812
▁theoretical	-11.3813
▁closing	-11.3814
▁everybody	-11.3814
ب	-11.3814
▁environments	-11.3815
▁conquered	-11.3816
267	-11.3817
scribe	-11.3818
де	-11.3818
▁precious	-11.3818
good	-11.3821
▁Financial	-11.3822
▁Billy	-11.3822
▁caution	-11.3823
dec	-11.3824
▁sovereign	-11.3824
}")	-11.3825
nick	-11.3825
▁pound	-11.3826
▁Writing	-11.3826
▁companion	-11.3826
▁Holland	-11.3827
raw	-11.3828
▁1870	-11.3828
reg	-11.3832
266	-11.3835
▁puzzle	-11.3835
▁alike	-11.3835
▁~	-11.3837
ABAQAAA	-11.3838
▁sustained	-11.384
▁embrace	-11.384
Response	-11.3844
▁supreme	-11.3845
▁succession	-11.3845
▁belonging	-11.3846
187	-11.3847
▁Rothschild	-11.3849
XL	-11.3853
▁Top	-11.3853
▁Hand	-11.3854
▁investigate	-11.3854
▁masters	-11.3855
erson	-11.3856
▁entertainment	-11.3859
▁FOR	-11.386
VX	-11.3862
부	-11.3863
▁Alabama	-11.3863
▁157	-11.3864
▁Attribution	-11.3865
請	-11.3865
▁Sand	-11.3867
180	-11.3868
▁govern	-11.3868
▁slope	-11.3868
▁dimension	-11.3869
▁Night	-11.3869
给	-11.387
▁108	-11.3871
lincoln	-11.3872
qa	-11.3873
推	-11.3874
parse	-11.3874
▁Venetian	-11.3875
す	-11.3875
elo	-11.3875
▁boss	-11.3876
▁ends	-11.3878
Fo	-11.3878
tree	-11.388
▁fighters	-11.3881
option	-11.3882
▁tended	-11.3882
OV	-11.3882
▁advocate	-11.3883
▁Gor	-11.3884
notes	-11.3885
▁approaching	-11.3886
erman	-11.3887
▁shade	-11.3887
owner	-11.3887
Ox	-11.3887
▁crowded	-11.3888
▁Administration	-11.3888
▁mathematical	-11.3888
plot	-11.3888
▁obviously	-11.3889
VZ	-11.389
feld	-11.3893
▁insult	-11.3895
eli	-11.3897
▁1946	-11.3898
cycl	-11.3898
▁fed	-11.3899
▁consumers	-11.3899
▁tribe	-11.3905
▁«	-11.3905
▁mines	-11.3906
▁arts	-11.3906
▁vis	-11.3908
물	-11.3909
▁중	-11.3909
443	-11.391
cn	-11.3911
▁133	-11.3912
▁warrant	-11.3912
▁measured	-11.3913
▁Scholar	-11.3914
dio	-11.3916
▁squadron	-11.3918
GI	-11.3918
▁python	-11.392
▁Wolf	-11.3921
green	-11.3923
‐	-11.3924
ст	-11.3926
ees	-11.3928
▁facilities	-11.3928
▁courses	-11.3929
lord	-11.3931
▁lights	-11.3933
▁Tech	-11.3934
▁regret	-11.3934
▁infection	-11.3935
▁creativity	-11.3935
▁diplomat	-11.3938
▁colonists	-11.3939
ule	-11.3939
Number	-11.394
Class	-11.394
▁Var	-11.3942
▁og	-11.3943
▁Sho	-11.3943
別	-11.3944
vue	-11.3945
CY	-11.3945
IZ	-11.3945
▁genuine	-11.3945
▁parse	-11.3947
▁advised	-11.3947
치	-11.3947
AAAAAAB	-11.3948
過	-11.3949
pul	-11.3951
▁edited	-11.3953
VB	-11.3955
▁MI	-11.3955
ination	-11.3958
Ya	-11.3961
pha	-11.3962
го	-11.3962
▁employ	-11.3963
▁Lower	-11.3963
asse	-11.3963
라	-11.3964
동	-11.3965
▁Depression	-11.3966
▁consensus	-11.3966
▁breach	-11.3968
▁repeatedly	-11.3969
▁identification	-11.3969
Bw	-11.397
▁wages	-11.3971
xl	-11.3972
▁spec	-11.3972
▁Warren	-11.3973
▁Stock	-11.3974
▁1969	-11.3975
elt	-11.3975
▁Burn	-11.3975
▁reporter	-11.3976
tool	-11.3976
java	-11.3976
still	-11.3977
商	-11.3978
▁Maryland	-11.3979
▁lifted	-11.398
▁———.	-11.398
Kl	-11.3982
click	-11.3984
▁celebration	-11.3986
▁genius	-11.3986
ña	-11.3988
▁dem	-11.399
powered	-11.399
▁24.	-11.399
▁medication	-11.3998
▁neuro	-11.3999
진	-11.3999
Dj	-11.4006
보	-11.4008
▁speaker	-11.4008
存在	-11.4008
п	-11.4009
▁versions	-11.401
▁acid	-11.401
▁Yankee	-11.401
▁합니다	-11.4011
607	-11.4012
uj	-11.4012
月	-11.4014
ury	-11.4015
▁Lloyd	-11.4015
ร	-11.4017
▁và	-11.4017
▁Kid	-11.4018
▁106	-11.4018
>>	-11.4019
▁regardless	-11.4019
▁valor	-11.4019
vez	-11.402
う	-11.4021
onia	-11.4021
▁1937	-11.4022
▁Following	-11.4023
食	-11.4023
見	-11.4024
OY	-11.4028
適	-11.4029
▁mut	-11.4029
▁Mat	-11.403
▁descriptions	-11.403
▁cru	-11.4031
▁Making	-11.4031
▁conn	-11.4032
▁cette	-11.4033
▁tale	-11.4034
East	-11.4034
▁1;	-11.4035
OE	-11.4036
WM	-11.4038
▁1941,	-11.404
ished	-11.404
▁datasets	-11.404
▁assumptions	-11.404
▁Facebook	-11.4042
▁Stra	-11.4044
Her	-11.4044
GV	-11.4045
EST	-11.4045
pop	-11.4047
▁Juan	-11.4048
▁Method	-11.405
▁Las	-11.405
▁PA	-11.405
AW	-11.4051
ę	-11.4051
Inter	-11.4051
save	-11.4052
▁genetic	-11.4054
193	-11.4056
▁gro	-11.4057
î	-11.4058
▁($	-11.406
▁vivid	-11.4061
▁declined	-11.4061
-17	-11.4064
AJVAAAAAAAA	-11.4065
▁leverage	-11.4065
▁meets	-11.4066
▁sk	-11.4066
▁om	-11.407
▁competitors	-11.4071
▁stat	-11.4073
▁Alfred	-11.4074
▁revenge	-11.4075
Boston	-11.4076
ologie	-11.4076
▁telegraph	-11.4076
▁cli	-11.4077
▁weights	-11.4077
▁saint	-11.4078
▁priority	-11.4079
▁arrangements	-11.4079
▁Naval	-11.4079
control	-11.408
▁conclude	-11.4081
▁designs	-11.4082
▁tear	-11.4085
▁Exchange	-11.4086
▁Syria	-11.4089
▁ticket	-11.4092
▁achievement	-11.4096
agon	-11.4097
▁interactive	-11.4099
103	-11.41
▁mor	-11.4102
▁replacement	-11.4102
uer	-11.4105
א	-11.4106
▁hatred	-11.4109
▁roots	-11.4109
mac	-11.4109
식	-11.4109
再	-11.411
▁summoned	-11.411
module	-11.411
Ly	-11.4112
▁clerk	-11.4112
▁Barr	-11.4112
273	-11.4113
▁promoted	-11.4113
▁prosperity	-11.4113
▁matches	-11.4115
proof	-11.4115
▁calendar	-11.4115
bourg	-11.4117
▁ports	-11.4119
▁drum	-11.4119
▁brush	-11.412
Uh	-11.4121
▁closest	-11.4121
▁Try	-11.4121
▁monarchy	-11.4122
▁terminal	-11.4124
此	-11.4125
▁affection	-11.4126
▁fingers	-11.4126
▁tender	-11.4127
▁173	-11.4128
▁Industrial	-11.4131
Detail	-11.4132
▁critics	-11.4132
tional	-11.4133
700	-11.4134
▁1850	-11.4136
antes	-11.4137
coming	-11.4137
▁briefly	-11.4137
Test	-11.4138
▁grief	-11.4138
▁$2	-11.4139
move	-11.414
▁아	-11.4142
tty	-11.4143
tir	-11.4146
▁angel	-11.4147
▁foster	-11.4148
gI	-11.4148
456	-11.415
▁isolation	-11.4151
"}	-11.4154
▁1975	-11.4154
ле	-11.4157
▁voted	-11.4157
><	-11.4159
▁Small	-11.4159
ott	-11.416
▁Local	-11.416
▁Custer	-11.4161
278	-11.4162
hot	-11.4164
▁decentralized	-11.4166
▁Sto	-11.4166
Av	-11.4166
▁realistic	-11.4167
ш	-11.4167
ל	-11.4168
▁sustainability	-11.4169
387	-11.417
▁29,	-11.417
▁rolled	-11.4172
▁Declaration	-11.4173
craft	-11.4173
▁highlighting	-11.4174
▁Eli	-11.4176
NV	-11.4176
▁maneuver	-11.4177
lee	-11.4177
wd	-11.4177
▁supplied	-11.4178
Mx	-11.4178
▁Similarly	-11.4181
north	-11.4181
Vp	-11.4181
▁bay	-11.4181
ラ	-11.4183
▁Game	-11.4184
▁harder	-11.4185
▁Wo	-11.4185
ounce	-11.4186
▁quantity	-11.4187
Iz	-11.4187
osa	-11.4188
應	-11.4188
iger	-11.4188
▁fre	-11.4188
IST	-11.419
소	-11.4192
cv	-11.4195
▁attacking	-11.4195
ologist	-11.4196
▁1982	-11.4196
cción	-11.4198
音	-11.4198
▁acquisition	-11.42
Red	-11.4203
380	-11.4204
▁trend	-11.4205
KV	-11.4205
▁combine	-11.4208
acc	-11.4212
▁discussing	-11.4212
ova	-11.4215
▁spaces	-11.4216
375	-11.4216
▁cri	-11.4218
า	-11.4219
▁residence	-11.422
▁math	-11.422
ч	-11.422
단	-11.4221
▁Tower	-11.4221
-15	-11.4221
▁reminded	-11.4221
▁protecting	-11.4222
pacific	-11.4222
▁rob	-11.4223
▁Bru	-11.4224
▁deaths	-11.4224
classic	-11.4225
ри	-11.4225
wen	-11.4226
▁journalist	-11.4228
Tw	-11.423
ação	-11.4231
▁지	-11.4233
▁Channel	-11.4235
HC	-11.4236
james	-11.4236
dv	-11.4237
▁entities	-11.4237
▁Mai	-11.4238
▁powder	-11.4238
▁hired	-11.4239
QAGAABA	-11.4239
duce	-11.4241
":23,"	-11.4242
Great	-11.4242
cate	-11.4242
▁traveling	-11.4244
▁possibilities	-11.4244
▁1812	-11.4245
▁educated	-11.4246
▁bone	-11.4249
Wi	-11.425
▁showcase	-11.425
mccullough	-11.425
gil	-11.425
▁confront	-11.4251
▁Sign	-11.4253
▁hypo	-11.4253
▁dam	-11.4253
▁shaped	-11.4253
▁senator	-11.4254
itu	-11.4254
▁exhibit	-11.4256
Soviet	-11.4256
เ	-11.4257
▁focuses	-11.4258
不同的	-11.4259
▁charm	-11.4264
▁SC	-11.4265
▁plate	-11.4268
▁legitimate	-11.4269
371	-11.427
▁thunder	-11.427
▁secular	-11.427
2020	-11.4271
fy	-11.4273
▁Garden	-11.4273
▁singing	-11.4276
plain	-11.4281
kon	-11.4282
▁1981	-11.4282
▁Slide	-11.4283
▁incorporating	-11.4285
▁Netherlands	-11.4285
QW	-11.4286
▁haven	-11.4287
dorie	-11.4288
▁Florence	-11.4288
▁1949	-11.4288
+6	-11.4289
▁Besides	-11.4291
・	-11.4292
WP	-11.4292
▁Pap	-11.4295
289	-11.4295
Gen	-11.4296
clu	-11.4297
▁Tur	-11.4298
▁1973	-11.4299
▁safely	-11.43
▁4.0","	-11.4305
firm	-11.4305
HT	-11.4306
▁q	-11.4307
▁Calculate	-11.4308
▁Wor	-11.4308
▁holds	-11.431
ün	-11.431
▁fame	-11.4311
-4.0","	-11.4312
▁pipeline	-11.4319
▁transferred	-11.4319
比	-11.4319
pdf	-11.4324
▁occasionally	-11.4325
pli	-11.4325
▁finds	-11.4325
▁automation	-11.4325
▁lecture	-11.4326
▁exclusive	-11.433
▁Crime	-11.4332
▁1988	-11.4332
creativecommons	-11.4333
▁136	-11.4334
std	-11.4335
▁merit	-11.4335
▁cheap	-11.4337
▁builder	-11.4338
▁peut	-11.4338
ShareAlike	-11.4338
▁False	-11.4339
ancing	-11.434
SQ	-11.434
▁dim	-11.4341
▁earn	-11.4342
▁sing	-11.4343
非常	-11.4344
/4.0/"}],"	-11.4349
▁ku	-11.4349
▁damaged	-11.4349
MQ	-11.435
VP	-11.4351
draw	-11.4353
▁Country	-11.4354
语	-11.4355
▁py	-11.4355
▁urgent	-11.4355
▁Rev	-11.4356
DAw	-11.4357
▁1971	-11.4359
▁deployed	-11.4359
提	-11.4359
▁behaviour	-11.4362
ла	-11.4363
▁covers	-11.4364
▁Hans	-11.4366
RK	-11.437
lambda	-11.4372
▁steep	-11.4374
▁Maxim	-11.4374
▁explicitly	-11.4376
▁Colonial	-11.4376
▁104	-11.4377
▁Clo	-11.4378
VJ	-11.4378
▁installation	-11.4378
297	-11.4379
▁sustain	-11.4379
holder	-11.438
vc	-11.4381
▁Bow	-11.4381
▁passionate	-11.4382
AND	-11.4382
JG	-11.4383
odor	-11.4384
▁halt	-11.4385
▁intentions	-11.439
Ou	-11.439
INE	-11.4394
YZ	-11.4394
▁25.	-11.4394
105	-11.4395
▁poetry	-11.4395
여	-11.4396
▁rush	-11.4397
WS	-11.4398
身	-11.4401
__(	-11.4402
▁1932	-11.4403
▁proceeded	-11.4404
▁setup	-11.4404
WR	-11.4405
JO	-11.4406
▁про	-11.4407
predict	-11.4407
▁stern	-11.4409
▁1978	-11.4409
제	-11.441
▁ridge	-11.441
Char	-11.441
STR	-11.4412
▁Upon	-11.4415
ž	-11.4416
▁phenomenon	-11.4416
č	-11.4418
▁preserved	-11.4422
Config	-11.4423
viii	-11.4423
▁bowl	-11.4428
meter	-11.4429
▁Karl	-11.4429
▁faint	-11.4429
XG	-11.443
bie	-11.443
机	-11.4431
very	-11.4433
▁Dick	-11.4438
keeper	-11.4438
▁inputs	-11.4438
tian	-11.4439
gers	-11.4444
▁cada	-11.4444
▁surprising	-11.4446
用于	-11.4447
▁138	-11.4449
▁guest	-11.445
▁reforms	-11.4451
tha	-11.4451
UH	-11.4452
ics	-11.4453
1-4	-11.4454
308	-11.4454
▁rushed	-11.4455
▁reject	-11.4455
▁ignore	-11.4457
▁generous	-11.4457
▁occasions	-11.4458
▁mate	-11.4459
▁moves	-11.4459
公司	-11.446
▁1986	-11.446
MZ	-11.4461
▁sleeping	-11.4463
▁suggesting	-11.4463
prop	-11.4464
▁refuse	-11.4467
▁shells	-11.4467
▁Daily	-11.4468
▁Digital	-11.4469
ances	-11.4474
▁Current	-11.4476
▁equipped	-11.4476
Ql	-11.4477
▁ya	-11.4477
building	-11.4478
例	-11.4479
▁acquire	-11.448
Ol	-11.4481
▁Object	-11.4482
▁coll	-11.4484
建立	-11.4484
LV	-11.4486
то	-11.4486
▁Leg	-11.4486
▁ensures	-11.4486
▁gets	-11.4487
▁architect	-11.4491
ket	-11.4491
能够	-11.4492
▁parade	-11.4494
▁1966	-11.4495
David	-11.4498
▁dispatch	-11.4498
▁bishop	-11.4498
▁É	-11.4499
▁Chamberlain	-11.4499
Ih	-11.45
▁Powell	-11.4501
ffer	-11.4501
phy	-11.4502
▁rap	-11.4503
▁Dear	-11.4505
▁inches	-11.4506
야	-11.4507
▁statistical	-11.4507
White	-11.4507
▁wet	-11.4509
▁formidable	-11.451
▁Gordon	-11.4512
NL	-11.4515
お	-11.4516
▁——	-11.4517
▁describing	-11.4518
▁achievements	-11.4519
▁Kim	-11.452
▁contractor	-11.452
]}	-11.4521
dl	-11.4522
כ	-11.4522
▁Bishop	-11.4522
▁persuade	-11.4523
Label	-11.4523
tä	-11.4524
▁137	-11.4524
▁instruments	-11.4524
▁oath	-11.4526
▁151	-11.4528
device	-11.4528
▁worthy	-11.4531
dell	-11.4532
460	-11.4536
▁Hey	-11.4537
▁Full	-11.4539
IQ	-11.4539
生活	-11.4539
jack	-11.454
▁slide	-11.4541
▁Maybe	-11.4543
▁Marco	-11.4543
Vu	-11.4544
控制	-11.4545
▁bri	-11.4545
hat	-11.4545
▁정	-11.4545
▁delegation	-11.4547
oa	-11.4548
▁presidency	-11.4548
工	-11.4548
sell	-11.4549
▁musical	-11.455
▁seats	-11.4551
▁importante	-11.4551
lement	-11.4552
packages	-11.4552
BH	-11.4553
国	-11.4553
▁148	-11.4553
問	-11.4554
▁1916	-11.4555
pping	-11.4555
idade	-11.4556
cY	-11.4556
▁131	-11.4556
ungen	-11.4557
▁comply	-11.4558
▁devil	-11.4559
gam	-11.4559
段	-11.456
▁1947	-11.4561
▁stretched	-11.4563
▁pose	-11.4565
▁10:	-11.4565
▁reactions	-11.4566
PY	-11.4566
"]}],"	-11.4568
(),	-11.4568
yy	-11.4569
▁applying	-11.457
▁purchased	-11.4571
▁assassination	-11.4571
por	-11.4572
▁manuscript	-11.4573
Mor	-11.4575
▁Gate	-11.4577
▁mortar	-11.4578
▁fraud	-11.4579
Lj	-11.4583
rv	-11.4585
▁ally	-11.4586
需求	-11.4586
although	-11.4587
bear	-11.4588
▁Israeli	-11.4588
▁provincial	-11.4588
XH	-11.4589
Input	-11.459
▁conversations	-11.4591
主要	-11.4591
▁specialized	-11.4592
▁139	-11.4593
▁translate	-11.4594
から	-11.4597
▁actively	-11.4598
congress	-11.46
во	-11.4602
▁depended	-11.4602
▁Zealand	-11.4602
▁grade	-11.4605
▁bon	-11.4605
▁Cooper	-11.4606
전	-11.4606
election	-11.4607
▁agenda	-11.4607
569	-11.4608
lets	-11.4608
▁twin	-11.4611
▁Brooklyn	-11.4612
qué	-11.4612
▁Bou	-11.4612
▁Mountain	-11.4613
▁sympathy	-11.4613
▁152	-11.4614
▁murdered	-11.4616
▁1865	-11.462
▁recording	-11.462
▁birthday	-11.4621
▁expressions	-11.4622
member	-11.4629
▁coalition	-11.4629
)}	-11.4632
▁solar	-11.4633
arrow	-11.4633
wf	-11.4635
▁Bla	-11.4638
▁Emily	-11.4638
▁delight	-11.4638
▁pursued	-11.4639
▁leak	-11.4639
▁plugin	-11.4641
▁147	-11.4644
▁Live	-11.4645
ZK	-11.4647
▁Crusade	-11.4648
company	-11.4648
review	-11.465
▁소	-11.4653
▁Hospital	-11.4654
▁pal	-11.4654
ない	-11.4654
▁Isaac	-11.4655
▁adequate	-11.4656
▁fairness	-11.4657
▁hay	-11.4658
거	-11.4658
vit	-11.4659
▁experiments	-11.4659
書	-11.466
▁insert	-11.4663
▁territorial	-11.4665
▁sphere	-11.4666
own	-11.4667
	-11.4672
▁poly	-11.4672
send	-11.4672
zn	-11.4672
▁reli	-11.4673
tile	-11.4673
404	-11.4674
▁Louisiana	-11.4674
tract	-11.4674
▁knight	-11.4676
▁Self	-11.4676
▁parliament	-11.4679
원	-11.468
▁103	-11.468
▁stones	-11.468
▁Soviets	-11.4682
Sir	-11.4682
具有	-11.4683
next	-11.4684
▁Hunt	-11.4687
wp	-11.4687
▁Pr	-11.4688
▁cargo	-11.4689
▁chances	-11.4689
================	-11.4692
bling	-11.4693
109	-11.4695
jud	-11.4695
labor	-11.4695
Ow	-11.4696
Range	-11.4698
▁loans	-11.47
password	-11.4701
▁119	-11.4702
▁arrangement	-11.4702
▁coverage	-11.4702
▁prompts	-11.4703
record	-11.4705
Line	-11.4705
▁openly	-11.4707
TX	-11.4707
▁1890	-11.4708
▁Trust	-11.4708
▁horizon	-11.4708
Zb	-11.4712
發	-11.4713
▁explaining	-11.4715
IK	-11.4716
Pl	-11.4716
Kx	-11.4717
▁seal	-11.4717
▁gates	-11.4719
▁Multi	-11.4719
▁1935	-11.4719
government	-11.472
gov	-11.4721
political	-11.4721
▁Random	-11.4721
▁luxury	-11.4722
▁proclaimed	-11.4723
▁uncertain	-11.4723
▁vow	-11.4725
路	-11.4727
Ok	-11.4727
quit	-11.4727
學生	-11.4728
VG	-11.4728
▁Abu	-11.4729
▁intimate	-11.4729
▁Os	-11.473
▁Freedom	-11.473
▁chatbot	-11.4731
door	-11.4732
480	-11.4733
wel	-11.4735
▁District	-11.4736
▁welfare	-11.4736
VK	-11.4737
▁115	-11.4738
words	-11.4739
VL	-11.4741
▁mistakes	-11.4741
293	-11.4744
345	-11.4745
chy	-11.4745
307	-11.4746
▁procedure	-11.4746
venue	-11.4746
5/	-11.4748
held	-11.4748
▁Peninsula	-11.4748
▁lawyers	-11.4748
▁Arabs	-11.475
▁(2)	-11.4752
306	-11.4753
▁boot	-11.4753
encing	-11.4755
ק	-11.4764
▁restrictions	-11.4766
▁Ball	-11.4766
▁reminder	-11.4766
UU	-11.4766
▁Medical	-11.4768
第	-11.4768
maker	-11.4769
▁sunk	-11.4769
该	-11.4771
▁seize	-11.4771
▁dish	-11.4773
▁sessions	-11.4773
▁dense	-11.4774
looking	-11.4776
qd	-11.4777
記	-11.4779
▁knee	-11.4779
▁arose	-11.478
명	-11.478
dx	-11.4782
▁festival	-11.4782
▁partnership	-11.4782
▁sweat	-11.4783
ORD	-11.4784
ih	-11.4785
RQ	-11.4787
▁excessive	-11.4787
tab	-11.4788
TOR	-11.4788
plex	-11.4788
HP	-11.4789
▁keyword	-11.479
▁141	-11.4791
hel	-11.4791
▁107	-11.4792
▁candle	-11.4793
工具	-11.4794
quer	-11.4794
▁1956	-11.4795
284	-11.4795
▁hearts	-11.4796
ör	-11.4798
Richard	-11.4799
368	-11.48
0+	-11.4802
ault	-11.4802
▁uint	-11.4803
▁Short	-11.4804
Day	-11.4804
▁mercy	-11.4808
▁delegates	-11.4808
transform	-11.4808
▁Care	-11.4809
▁dignity	-11.4812
▁Mid	-11.4812
lis	-11.4813
▁Lind	-11.4814
FU	-11.4815
499	-11.4817
CK	-11.4817
▁Bernard	-11.4819
▁gotham	-11.482
mise	-11.482
▁sto	-11.4822
▁Herbert	-11.4822
▁conquer	-11.4823
ential	-11.4825
▁sophisticated	-11.4826
film	-11.4827
Exception	-11.4828
rif	-11.4828
▁promising	-11.483
:“	-11.483
cier	-11.4832
hh	-11.4835
▁`<	-11.4837
lr	-11.4837
mount	-11.4838
▁exam	-11.4838
▁prophet	-11.4839
▁temp	-11.4839
▁NSW	-11.4839
▁lists	-11.484
▁attempting	-11.484
民	-11.4841
Screen	-11.4841
空	-11.4841
▁172	-11.4842
310	-11.4843
▁titles	-11.4847
Query	-11.4847
interest	-11.4849
▁Put	-11.4849
▁plum	-11.4851
Qaeda	-11.4851
▁Matthew	-11.4853
格	-11.4854
용	-11.4855
這些	-11.4856
jp	-11.4857
▁Box	-11.4857
▁rendered	-11.4857
▁scandal	-11.4858
IVE	-11.4858
rri	-11.4859
KO	-11.486
▁до	-11.4862
rak	-11.4864
▁pioneer	-11.4864
▁scenarios	-11.4864
▁exceed	-11.4865
▁neuron	-11.4866
▁146	-11.4867
vir	-11.4867
ח	-11.4868
▁Fox	-11.4868
ś	-11.487
▁Hy	-11.4872
▁1942,	-11.4872
▁amid	-11.4873
▁flower	-11.4873
▁verse	-11.4873
▁Pur	-11.4876
その	-11.4877
▁Connect	-11.4877
rash	-11.4877
PF	-11.4878
▁buffer	-11.4878
▁102	-11.4879
▁reservation	-11.4879
▁ces	-11.4881
WE	-11.4881
▁Diary	-11.4882
kel	-11.4882
▁vague	-11.4883
stat	-11.4883
ece	-11.4884
▁Socialist	-11.4885
Oxford	-11.4887
cation	-11.4887
444	-11.4887
FV	-11.4887
▁bulk	-11.4889
alism	-11.4889
ら	-11.4889
▁amazing	-11.489
▁Agency	-11.489
▁freely	-11.4892
▁prob	-11.4893
▁secondary	-11.4894
服务	-11.4895
▁Whatever	-11.4896
产品	-11.4897
pc	-11.4898
▁mount	-11.4899
▁choosing	-11.4899
nya	-11.49
▁pig	-11.4901
ulate	-11.4902
▁smiled	-11.4902
▁literally	-11.4902
▁grim	-11.4903
▁bigger	-11.4904
▁paint	-11.4904
130	-11.4904
▁anyway	-11.4906
▁Bos	-11.4909
Component	-11.491
言	-11.491
isi	-11.4911
▁Hebrew	-11.4912
▁delicate	-11.4912
▁Bern	-11.4912
104	-11.4913
context	-11.4913
lag	-11.4916
Ob	-11.4917
▁Author	-11.4918
294	-11.4918
bow	-11.4918
▁rot	-11.4919
+0	-11.4921
bt	-11.4923
▁||	-11.4923
▁Tour	-11.4924
▁invitation	-11.4924
▁132	-11.4925
▁Bol	-11.4926
▁instructed	-11.4928
Cha	-11.4929
▁butter	-11.493
▁Bear	-11.493
▁slip	-11.4931
structure	-11.4932
YS	-11.4932
▁Never	-11.4932
▁flexibility	-11.4934
▁dependencies	-11.4935
▁quit	-11.4936
▁epidemic	-11.4937
ом	-11.4938
vey	-11.4938
▁elect	-11.4939
▁Michel	-11.494
QD	-11.4941
▁Qui	-11.4942
ク	-11.4942
gU	-11.4943
ference	-11.4945
▁cleaning	-11.4946
▁1972	-11.4951
還	-11.4954
▁hated	-11.4956
fore	-11.4958
386	-11.4959
▁joining	-11.4959
▁repository	-11.496
▁111	-11.496
▁Excel	-11.496
▁Ever	-11.4961
▁Harvey	-11.4962
▁hierarchy	-11.4963
▁cybersecurity	-11.4965
▁1863	-11.4965
106	-11.4966
▁vs	-11.4966
▁threatening	-11.4968
▁Option	-11.4969
▁removal	-11.497
False	-11.497
密	-11.4972
▁wondered	-11.4973
`)	-11.4974
ATE	-11.4975
eration	-11.4976
writer	-11.4976
▁정보	-11.4979
umble	-11.4979
BG	-11.498
Int	-11.498
camp	-11.4981
▁1976	-11.4982
▁Tan	-11.4985
bia	-11.4987
gp	-11.4987
▁charts	-11.4988
vention	-11.4988
bj	-11.4989
▁strengths	-11.499
izer	-11.499
▁nil	-11.4991
▁cleared	-11.4992
oso	-11.4995
Ry	-11.4995
bh	-11.4996
▁Psychology	-11.4996
▁9:	-11.4996
▁serves	-11.4998
337	-11.5001
▁fro	-11.5002
	-11.5002
288	-11.5003
▁minimal	-11.5003
▁hunter	-11.5003
我的	-11.5005
▁117	-11.5006
▁1936	-11.5007
QF	-11.5008
NJ	-11.5009
白	-11.501
▁Kong	-11.5011
▁validate	-11.5011
▁providers	-11.5011
iq	-11.5012
▁compelling	-11.5012
▁furious	-11.5012
▁Replace	-11.5012
▁Ministry	-11.5013
Hx	-11.5013
▁struggles	-11.5013
▁enforce	-11.5014
groups	-11.5014
vation	-11.5014
287	-11.5014
175	-11.5015
▁demanding	-11.5018
header	-11.502
▁Thor	-11.5022
▁telegram	-11.5022
149	-11.5022
▁mentor	-11.5022
▁Norway	-11.5022
▁시	-11.5023
ま	-11.5023
Jewish	-11.5023
▁slight	-11.5023
cZ	-11.5024
▁Stuart	-11.5024
▁inspection	-11.5024
▁electricity	-11.5024
lx	-11.5024
sheet	-11.5024
▁respective	-11.5027
▁observations	-11.5027
▁mini	-11.503
rise	-11.5031
▁116	-11.5031
liness	-11.5033
▁notable	-11.5034
Qy	-11.5034
實	-11.5034
gb	-11.5035
ét	-11.5036
▁logo	-11.5041
▁bibliography	-11.5042
▁overseas	-11.5042
型	-11.5046
▁writes	-11.5046
pit	-11.5048
▁witnessed	-11.5048
▁acres	-11.5049
KA	-11.5051
Il	-11.5052
arse	-11.5053
lau	-11.5053
▁Windows	-11.5053
▁pushing	-11.5054
▁Strategy	-11.5057
uro	-11.5057
▁counted	-11.5057
▁Eleanor	-11.5058
▁tonight	-11.5059
▁locked	-11.5059
brook	-11.506
▁Chan	-11.5061
▁fluid	-11.5061
▁swing	-11.5061
ен	-11.5062
▁arriving	-11.5063
▁MAR	-11.5063
124	-11.5064
线	-11.5065
hawk	-11.5066
▁della	-11.5067
Pk	-11.5067
▁stem	-11.5068
Paul	-11.5069
ZJ	-11.5069
▁Music	-11.507
document	-11.5072
▁drain	-11.5072
נ	-11.5073
▁shake	-11.5074
▁backward	-11.5074
▁Application	-11.5074
VT	-11.5076
▁banking	-11.5077
▁rocks	-11.5077
▁enables	-11.5078
github	-11.5078
▁heroes	-11.5079
Mon	-11.508
HX	-11.508
▁examined	-11.5081
▁prevented	-11.5082
▁membership	-11.5082
▁princes	-11.5085
▁Consul	-11.5085
Spain	-11.5087
DN	-11.5088
kK	-11.5088
QB	-11.5089
▁Christopher	-11.509
▁failing	-11.5091
VW	-11.5092
▁cease	-11.5095
▁Value	-11.5097
▁CSV	-11.5097
▁conscience	-11.5097
됩니다	-11.5097
iest	-11.5098
ONE	-11.5098
▁gifts	-11.5099
▁fragment	-11.5099
▁theatre	-11.5101
ech	-11.5102
▁thrust	-11.5102
▁upgrade	-11.5102
access	-11.5102
ет	-11.5103
▁1862	-11.5103
285	-11.5104
ZKP	-11.5105
▁Nelson	-11.5105
▁lifetime	-11.5106
▁offset	-11.5108
ANT	-11.5108
▁Uni	-11.5109
chief	-11.5109
▁Total	-11.511
street	-11.5115
▁batteries	-11.5116
Us	-11.5118
Wr	-11.5118
Kr	-11.5118
▁pred	-11.5121
▁Unfortunately	-11.5123
thy	-11.5124
▁Panzer	-11.5125
atic	-11.5125
equ	-11.5126
▁founder	-11.5126
▁Mah	-11.5128
ş	-11.5128
▁Wilkes	-11.5129
▁discrimination	-11.5131
▁veteran	-11.5131
▁expanding	-11.5132
계	-11.5132
ד	-11.5132
▁sauce	-11.5133
yk	-11.5134
effective	-11.5134
ça	-11.5134
limit	-11.5135
Roman	-11.5136
xj	-11.5137
▁affirm	-11.5139
Fy	-11.5139
565	-11.5139
▁Sem	-11.5139
rh	-11.5141
▁lift	-11.5141
▁서비스	-11.5147
Za	-11.5148
render	-11.5149
▁commanding	-11.515
▁politician	-11.515
▁hunt	-11.515
Min	-11.5152
ма	-11.5152
▁demon	-11.5153
▁preference	-11.5154
▁않	-11.5155
MN	-11.5155
tour	-11.5155
Ay	-11.5158
▁Nar	-11.5158
389	-11.5159
▁registered	-11.516
▁envi	-11.5161
▁witnesses	-11.5166
kill	-11.5168
▁quote	-11.5168
▁invented	-11.5169
▁struggled	-11.5173
ctu	-11.5173
▁sua	-11.5174
nq	-11.5174
니다	-11.5176
▁1945,	-11.5178
183	-11.5178
NET	-11.5179
▁shield	-11.5183
▁crowds	-11.5187
▁developer	-11.5188
george	-11.5192
▁Sen	-11.5193
▁queries	-11.5194
▁clo	-11.5197
▁gratitude	-11.5197
▁Index	-11.5197
Sub	-11.5197
agne	-11.5198
Kn	-11.5199
▁rounds	-11.5201
▁tracks	-11.5206
+5	-11.5206
Wl	-11.5207
▁accomplish	-11.5208
▁confused	-11.5209
▁bent	-11.5209
▁pregnancy	-11.5209
▁evidently	-11.521
部分	-11.521
Yo	-11.521
▁carrier	-11.5211
Britain	-11.5212
YD	-11.5213
quet	-11.5214
BM	-11.5215
▁Wild	-11.5215
▁lung	-11.5217
497	-11.5217
平	-11.5219
math	-11.522
▁throat	-11.522
▁Brazil	-11.5221
▁kon	-11.5221
′	-11.5221
▁1830	-11.5221
chem	-11.5222
업	-11.5223
▁Ages	-11.5223
▁dug	-11.5224
▁Final	-11.5224
▁Oct	-11.5228
▁nevertheless	-11.5228
125	-11.523
영	-11.523
▁Card	-11.5231
pound	-11.5233
Port	-11.5233
▁developments	-11.5234
▁통해	-11.5235
Kj	-11.5235
▁Theory	-11.5236
▁dirt	-11.5236
▁cheer	-11.5237
zj	-11.5238
HF	-11.5238
没有	-11.5238
▁seventeen	-11.5241
ع	-11.5241
prologue	-11.5242
aires	-11.5244
▁supplement	-11.5247
408	-11.5249
▁retained	-11.5251
▁Montgomery	-11.5252
EI	-11.5252
▁logging	-11.5253
302	-11.5253
iron	-11.5255
▁assumption	-11.5256
twenty	-11.5256
▁1864	-11.5256
nH	-11.5259
gio	-11.526
▁vest	-11.5261
duction	-11.5261
▁respected	-11.5263
▁opponent	-11.5264
Nx	-11.5265
MENT	-11.5266
▁Pierre	-11.5267
▁jury	-11.5268
▁regression	-11.527
▁peasant	-11.527
\_{	-11.527
gY	-11.5271
mine	-11.5274
▁bridges	-11.5274
▁Pet	-11.5275
▁mé	-11.5275
간	-11.5276
▁exc	-11.5276
King	-11.5278
▁Anthony	-11.5278
VH	-11.5278
▁numpy	-11.528
▁Turner	-11.5283
▁gonna	-11.5283
oriented	-11.5284
受	-11.5284
▁enforcement	-11.5285
▁quarrel	-11.5285
帮助	-11.5286
▁mighty	-11.5287
KB	-11.5288
▁intensity	-11.5289
mouth	-11.529
▁timeline	-11.529
▁Side	-11.529
▁Harris	-11.5291
▁lasting	-11.5291
roy	-11.5292
dj	-11.5292
(2)	-11.5293
▁dangers	-11.5293
pk	-11.5293
▁Ah	-11.5294
▁duke	-11.5297
▁Petersburg	-11.5298
GP	-11.5299
▁Near	-11.53
▁Police	-11.5301
399	-11.5302
Nq	-11.5302
▁humor	-11.5302
▁Madame	-11.5304
▁applicable	-11.5304
▁Rise	-11.5305
());	-11.5305
dale	-11.5305
▁Nat	-11.5307
▁curiosity	-11.5308
▁Mind	-11.5309
2-4	-11.5309
603	-11.531
▁workplace	-11.5311
▁Independence	-11.5312
▁114	-11.5313
▁subordinate	-11.5315
▁checking	-11.5315
▁Monte	-11.5315
▁sergeant	-11.5315
▁144	-11.5317
▁Deep	-11.5319
▁cy	-11.5319
▁decrease	-11.5322
ý	-11.5322
Table	-11.5324
▁Pra	-11.5325
ector	-11.5327
▁1915	-11.5328
OI	-11.5329
%2	-11.5329
▁Member	-11.5329
▁fiction	-11.533
tif	-11.533
129	-11.5331
▁investments	-11.5331
zon	-11.5332
978	-11.5333
quin	-11.5334
▁consisted	-11.5334
Info	-11.5335
bet	-11.5337
LW	-11.5337
Ny	-11.5338
HJ	-11.5343
would	-11.5343
▁roughly	-11.5344
▁warrior	-11.5344
▁headline	-11.5345
XP	-11.5345
▁Way	-11.5346
ż	-11.5346
▁Mir	-11.5349
▁Belgium	-11.535
つ	-11.5351
▁reserved	-11.5351
oga	-11.5354
MEA	-11.5355
kp	-11.5355
▁apple	-11.5356
▁segment	-11.5356
▁highlight	-11.5357
▁voices	-11.5357
nation	-11.5358
▁sack	-11.5358
120	-11.5359
▁SEO	-11.536
▁credentials	-11.5362
▁studio	-11.5363
▁regiments	-11.5364
ZI	-11.5364
▁Idea	-11.5366
▁Analytics	-11.5367
▁mathematics	-11.5369
GL	-11.5369
jn	-11.537
▁likelihood	-11.5371
ль	-11.5374
▁infinite	-11.5375
▁firmly	-11.5375
▁popularity	-11.5375
▁Horn	-11.5376
▁intercept	-11.5376
▁Corporation	-11.5376
全	-11.5377
zw	-11.5378
▁surviving	-11.5378
▁공	-11.5378
保	-11.5379
▁Harrison	-11.5381
▁cheek	-11.5381
▁km	-11.5381
▁mus	-11.5382
ás	-11.5383
Sha	-11.5385
▁phrases	-11.5387
FY	-11.5387
▁excess	-11.5388
-47	-11.5388
해야	-11.5389
▁manipulate	-11.5389
▁embassy	-11.5393
ema	-11.5394
▁secrets	-11.5395
140	-11.5395
kit	-11.5397
8%	-11.5398
▁absent	-11.5399
von	-11.54
Ph	-11.5402
IDAAAAAAAAAA	-11.5402
XW	-11.5403
▁submitted	-11.5404
▁vari	-11.5405
going	-11.5405
wise	-11.5405
▁Strong	-11.5406
ische	-11.5406
är	-11.5408
▁112	-11.5409
▁stomach	-11.541
▁separation	-11.541
BL	-11.5411
限	-11.5412
▁tested	-11.5412
curr	-11.5413
▁furniture	-11.5416
▁worn	-11.5417
512	-11.5418
▁defining	-11.5419
Who	-11.5419
▁injustice	-11.542
▁mer	-11.542
▁1959	-11.542
▁Neither	-11.542
305	-11.542
▁traders	-11.5421
292	-11.5421
▁forests	-11.5422
▁producer	-11.5422
▁chronic	-11.5423
373	-11.5424
laus	-11.5425
▁Golden	-11.5426
biology	-11.5426
▁Examples	-11.5426
문	-11.5428
▁spy	-11.543
349	-11.5431
え	-11.5434
▁sovereignty	-11.5435
European	-11.5435
tia	-11.5435
matrix	-11.5435
ки	-11.5437
▁Meta	-11.5438
▁rm	-11.5438
security	-11.5439
dog	-11.5439
▁Engineer	-11.544
▁slice	-11.5441
img	-11.5442
through	-11.5448
▁fortress	-11.5448
zione	-11.545
indian	-11.5451
▁disadvantage	-11.5452
ç	-11.5452
▁Works	-11.5453
555	-11.5453
Qx	-11.5454
▁Officer	-11.5455
▁Cup	-11.5455
▁deploy	-11.5456
qS	-11.5456
▁1977	-11.546
▁Thompson	-11.5461
▁actor	-11.5462
▁jurisdiction	-11.5463
▁subsequently	-11.5463
▁Singapore	-11.5463
▁versus	-11.5464
▁Cru	-11.5469
look	-11.547
”;	-11.547
oni	-11.5471
▁axis	-11.5471
▁Rio	-11.5472
步	-11.5473
▁118	-11.5476
▁conspiracy	-11.5477
UZ	-11.5477
Effect	-11.5479
EABcBA	-11.548
ups	-11.548
▁wounds	-11.5481
asser	-11.5482
ECA	-11.5482
▁pode	-11.5483
▁trauma	-11.5484
▁barrel	-11.5486
194	-11.5488
6+	-11.5488
▁1958	-11.5488
xt	-11.549
Black	-11.549
▁Bert	-11.5491
▁Inside	-11.5492
▁afterward	-11.5493
▁Lin	-11.5495
▁vegetables	-11.5495
▁Fr	-11.5497
▁relieved	-11.5499
YX	-11.5499
▁Acc	-11.55
って	-11.5502
▁confined	-11.5502
+/	-11.5503
376	-11.5503
416	-11.5503
▁Include	-11.5505
▁forecast	-11.5505
cm	-11.5507
▁Establish	-11.5507
▁compensation	-11.5507
▁Tribune	-11.551
▁varied	-11.5511
essa	-11.5511
Vg	-11.5513
▁trials	-11.5515
550	-11.5516
Jy	-11.5516
▁republican	-11.5517
ception	-11.5517
▁1929	-11.5518
▁Baghdad	-11.552
▁sul	-11.5523
▁padding	-11.5523
117	-11.5524
probability	-11.5525
▁Ellis	-11.5525
PV	-11.5526
▁prejudice	-11.5526
▁belt	-11.5526
science	-11.5527
▁knock	-11.5527
市场	-11.553
▁earning	-11.553
qU	-11.5532
▁Franco	-11.5535
▁encouraging	-11.5536
▁empower	-11.5536
tica	-11.5537
qt	-11.5537
dad	-11.5538
motion	-11.5538
487	-11.5539
host	-11.5543
▁Stu	-11.5545
solving	-11.5546
▁Cass	-11.5546
▁Haven	-11.5547
▁assurance	-11.5547
▁removing	-11.5548
quir	-11.5548
▁cyber	-11.5549
▁computers	-11.5549
▁Flo	-11.555
▁symbols	-11.5553
rer	-11.5553
▁mistress	-11.5554
▁glance	-11.5555
▁queue	-11.5555
▁Saudi	-11.5556
tell	-11.5556
parent	-11.5557
cie	-11.5557
▁burial	-11.5558
IJ	-11.5559
▁beaten	-11.5561
▁adds	-11.5561
▁Explanation	-11.5562
▁Bud	-11.5562
340	-11.5563
every	-11.5564
Hj	-11.5565
▁consul	-11.5566
▁armor	-11.5566
▁Basque	-11.5567
把	-11.5567
▁Cromwell	-11.5568
▁Portugal	-11.5571
▁Should	-11.5571
wQ	-11.5571
▁essence	-11.5573
▁Shar	-11.5574
▁simulation	-11.5574
▁prompted	-11.5574
Our	-11.5574
▁Moon	-11.5575
logy	-11.5576
▁Agreement	-11.5576
▁greeted	-11.5576
▁src	-11.5576
▁Moore	-11.558
▁Spi	-11.558
▁사	-11.5581
반	-11.5581
▁Conduct	-11.5584
1000	-11.5586
Chicago	-11.5586
▁Pop	-11.5588
question	-11.5588
▁reception	-11.5589
shing	-11.5589
▁clouds	-11.5589
Rk	-11.5589
▁websites	-11.5591
▁ל	-11.5592
▁midnight	-11.5595
▁Sydney	-11.5595
Mj	-11.5595
▁Pay	-11.5599
xu	-11.5599
▁lamp	-11.56
409	-11.5601
▁clash	-11.5602
GY	-11.5602
ulating	-11.5604
▁motivated	-11.5607
員	-11.5608
▁borders	-11.5608
▁Howe	-11.561
)`	-11.5613
IW	-11.5613
lK	-11.5614
生成	-11.5614
Zh	-11.5616
369	-11.5617
ought	-11.5617
▁nombre	-11.5617
▁thorough	-11.5621
▁notorious	-11.5622
▁controller	-11.5622
ф	-11.5624
▁Beach	-11.5626
uge	-11.5626
fill	-11.5627
▁chunk	-11.5627
bq	-11.5631
pb	-11.5631
181	-11.5632
▁113	-11.5632
Ce	-11.5633
Russia	-11.5633
▁Dim	-11.5633
▁kiss	-11.5634
Window	-11.5635
req	-11.5637
415	-11.5637
cup	-11.564
▁Knight	-11.5642
née	-11.5643
grade	-11.5644
immer	-11.5646
▁reflects	-11.5646
▁divers	-11.5648
▁facility	-11.5653
▁rocket	-11.5653
적으로	-11.5654
▁emphasizes	-11.5654
adas	-11.5654
erge	-11.5655
▁rid	-11.5655
▁Mis	-11.5656
この	-11.5656
▁graduate	-11.566
▁consistently	-11.5661
handle	-11.5662
lessly	-11.5663
▁convince	-11.5663
chin	-11.5663
esse	-11.5664
▁refuge	-11.5666
▁dining	-11.5667
factor	-11.5669
▁sooner	-11.5669
▁hip	-11.567
▁11:	-11.567
▁Iran	-11.567
hart	-11.5673
▁premise	-11.5674
发展	-11.5676
▁Hugh	-11.5676
▁Learn	-11.5676
▁Ray	-11.5677
Px	-11.5678
▁exciting	-11.5679
▁ghost	-11.568
▁daughters	-11.568
Gw	-11.5681
pH	-11.5681
hua	-11.5681
LK	-11.5682
▁packet	-11.5683
283	-11.5684
▁Evans	-11.5685
UA	-11.5686
▁Creating	-11.5687
▁supports	-11.5688
tivo	-11.5692
RH	-11.5692
▁missions	-11.5692
gé	-11.5692
zel	-11.5694
神	-11.5695
▁farmer	-11.5696
▁veterans	-11.5697
▁Dur	-11.5698
304	-11.5698
▁Everyone	-11.5699
음	-11.57
▁stations	-11.5701
▁advancing	-11.5701
▁officially	-11.5701
▁Sound	-11.5702
SG	-11.5703
▁wishes	-11.5704
jx	-11.5705
379	-11.5705
▁climbed	-11.5706
▁HE	-11.5706
▁legislative	-11.5706
▁structured	-11.5707
▁meters	-11.5709
▁patience	-11.571
mask	-11.571
▁dire	-11.571
march	-11.571
hou	-11.571
▁swell	-11.5711
▁genre	-11.5711
▁beard	-11.5711
paper	-11.5714
wR	-11.5715
▁Working	-11.5715
▁McKinley	-11.5716
▁wreck	-11.5717
pixel	-11.5718
▁viii	-11.5718
▁Ana	-11.5719
▁besides	-11.5719
Filter	-11.572
▁ceased	-11.5721
▁255	-11.5722
▁Install	-11.5724
bbe	-11.5725
eff	-11.5726
bad	-11.5726
mun	-11.5727
國	-11.5728
▁Mur	-11.5729
Dan	-11.573
:2)	-11.5733
Yq	-11.5733
rier	-11.5734
▁appealing	-11.5734
▁tract	-11.5734
dataset	-11.5734
vp	-11.5735
▁poured	-11.5735
infobox	-11.5736
lett	-11.5736
▁dock	-11.5736
▁utilize	-11.5737
▁lifestyle	-11.5737
Qo	-11.5739
analyse	-11.5739
▁Unit	-11.574
タ	-11.574
▁제공	-11.5741
▁rage	-11.5741
▁Executive	-11.5742
▁renewed	-11.5743
etter	-11.5743
▁Kon	-11.5744
▁explosive	-11.5745
wu	-11.5745
Nh	-11.5748
▁voters	-11.5748
ות	-11.575
▁1880	-11.575
▁league	-11.5751
▁mapping	-11.5751
▁tendency	-11.5752
stop	-11.5753
184	-11.5753
▁spare	-11.5753
▁recon	-11.5754
0000000	-11.5754
▁promptly	-11.5754
442	-11.5755
izar	-11.5756
mid	-11.5756
▁knife	-11.5757
rink	-11.5757
Qg	-11.5758
▁intend	-11.576
▁Systems	-11.5762
icia	-11.5763
論	-11.5763
》	-11.5763
▁grande	-11.5766
sam	-11.5766
▁gunner	-11.5767
▁Vin	-11.5768
▁tribute	-11.577
▁explicit	-11.577
GN	-11.5771
▁Fra	-11.5772
▁grip	-11.5775
▁conservation	-11.5775
▁BY	-11.5778
▁Organizational	-11.5779
時間	-11.578
▁sang	-11.5781
Om	-11.5781
▁solemn	-11.5782
1+	-11.5782
▁Ang	-11.5782
▁SO	-11.5782
《	-11.5782
etta	-11.5784
▁Fund	-11.5784
策略	-11.5786
▁shortage	-11.5786
cpp	-11.5786
Start	-11.5786
▁Cer	-11.5787
▁wings	-11.5787
▁transmission	-11.5787
▁partial	-11.5788
cole	-11.5789
pac	-11.5791
▁Say	-11.5792
DL	-11.5794
240	-11.5794
itive	-11.5795
hem	-11.5795
▁metadata	-11.5795
rol	-11.5795
▁helicopter	-11.5796
▁Online	-11.5798
oria	-11.5799
▁deny	-11.58
▁12:	-11.5801
▁drill	-11.5801
▁ascend	-11.5801
127	-11.5802
▁creator	-11.5803
▁Encourage	-11.5804
▁Harper	-11.5805
tung	-11.5806
▁monster	-11.5808
▁ruins	-11.5808
▁pri	-11.5809
rule	-11.581
mph	-11.581
amo	-11.5811
cout	-11.5811
清	-11.5815
▁electrical	-11.5815
ZE	-11.5815
ITE	-11.5816
coat	-11.5816
▁steal	-11.5817
SK	-11.582
▁universities	-11.5821
uous	-11.5822
▁magical	-11.5822
▁corporations	-11.5822
▁Syn	-11.5823
▁subscription	-11.5823
▁proven	-11.5824
ades	-11.5826
lyn	-11.5827
▁Visual	-11.5827
lessness	-11.5827
▁Crow	-11.5828
▁Pitt	-11.5829
▁Renaissance	-11.5831
改	-11.5831
新的	-11.5833
dp	-11.5836
FX	-11.5836
lection	-11.5836
▁pole	-11.5837
WU	-11.5839
类	-11.5839
▁printing	-11.5839
▁Instagram	-11.5839
▁Caribbean	-11.584
▁negotiate	-11.584
HQ	-11.5842
更加	-11.5844
▁retail	-11.5847
ogen	-11.5847
▁143	-11.5848
▁boots	-11.5851
▁publisher	-11.5852
▁specialist	-11.5852
pra	-11.5852
▁capitalism	-11.5854
▁edit	-11.5854
▁eu	-11.5854
▁pressing	-11.5854
▁Mod	-11.5855
qW	-11.5855
▁persistent	-11.5855
jq	-11.5855
Uy	-11.5855
整	-11.5859
Ang	-11.5859
child	-11.5861
▁contempt	-11.5861
▁26.	-11.5862
qo	-11.5862
▁rolling	-11.5862
▁perception	-11.5863
tention	-11.5863
▁concentrated	-11.5865
▁Sales	-11.5867
▁acute	-11.5867
hara	-11.5867
▁upload	-11.5867
▁everyday	-11.5867
morph	-11.5868
▁distinctive	-11.5868
▁knees	-11.5868
▁Butler	-11.5868
Joseph	-11.5868
mq	-11.5869
则	-11.587
开	-11.5873
RJ	-11.5875
Log	-11.5877
▁jumped	-11.5878
▁shops	-11.5879
▁slept	-11.588
▁lion	-11.588
▁Hungary	-11.588
360	-11.588
▁Castle	-11.5881
160	-11.5882
410	-11.5884
cH	-11.5884
ase	-11.5885
各	-11.5887
▁dirty	-11.5891
▁deals	-11.5892
▁Donald	-11.5892
quire	-11.5893
▁boundary	-11.5893
Connection	-11.5894
▁Record	-11.5894
▁interpreted	-11.5894
hap	-11.5894
Vq	-11.5894
cycle	-11.5895
Address	-11.5895
esses	-11.5896
▁Yale	-11.5897
▁overthrow	-11.5898
pir	-11.59
▁owed	-11.5901
ั	-11.5901
europe	-11.5901
push	-11.5902
zin	-11.5903
EY	-11.5904
qp	-11.5904
▁torture	-11.5905
999	-11.5905
통	-11.5905
▁magnificent	-11.5907
▁departed	-11.5908
jJ	-11.5909
▁celebrate	-11.5914
▁Ultimately	-11.5914
▁radi	-11.5916
revert	-11.5916
▁mitigate	-11.5917
Han	-11.5917
france	-11.5918
▁Herald	-11.5919
▁Jun	-11.592
Attribute	-11.5922
▁referring	-11.5923
bay	-11.5924
▁obscure	-11.5924
▁Porter	-11.5925
▁embedding	-11.5928
▁modification	-11.5931
nant	-11.5932
資料	-11.5932
▁formally	-11.5932
▁등	-11.5934
▁outdoor	-11.5934
▁broker	-11.5935
▁Mike	-11.5936
dle	-11.5937
times	-11.5939
▁1974	-11.594
▁wholly	-11.5942
▁virus	-11.5942
▁muscle	-11.5942
Bgc	-11.5942
▁pie	-11.5944
▁measurement	-11.5945
▁carriers	-11.5946
持	-11.5946
shop	-11.5949
pf	-11.5949
▁Marshal	-11.595
▁Mongols	-11.5951
aster	-11.5951
▁dragged	-11.5952
▁Output	-11.5953
▁balanced	-11.5954
vat	-11.5955
▁reinforcements	-11.5955
▁drag	-11.5956
▁strikes	-11.5956
ě	-11.5957
▁1957	-11.5957
▁paths	-11.5959
HD	-11.5959
▁reporters	-11.5959
▁не	-11.5959
327	-11.596
み	-11.5961
Wy	-11.5961
▁visualization	-11.5961
▁####	-11.5962
ishing	-11.5962
▁Twenty	-11.5963
▁Mao	-11.5964
▁seemingly	-11.5964
▁subtle	-11.597
piece	-11.5972
▁deserve	-11.5973
HER	-11.5973
cost	-11.5974
▁predecessor	-11.5974
▁sixteenth	-11.5977
▁critic	-11.5978
▁fishing	-11.5979
接	-11.5979
119	-11.5979
AST	-11.5979
▁Describe	-11.5979
▁Institution	-11.598
cons	-11.5982
▁stiff	-11.5982
▁800	-11.5982
▁chairman	-11.5983
打	-11.5984
Reference	-11.5984
kc	-11.5984
▁(!	-11.5984
▁avoided	-11.5988
▁WHERE	-11.5989
▁naked	-11.5989
▁Click	-11.599
▁inspire	-11.599
900	-11.5991
ease	-11.5994
▁Less	-11.5994
richard	-11.5995
▁samples	-11.5996
lop	-11.5997
qc	-11.5997
▁Energy	-11.5999
meta	-11.6
Ap	-11.6001
Gy	-11.6001
works	-11.6002
Db	-11.6002
fish	-11.6003
ру	-11.6003
▁suspicious	-11.6003
kes	-11.6003
403	-11.6007
elles	-11.6007
▁García	-11.6007
▁Sweden	-11.6007
▁Beck	-11.6008
▁grandfather	-11.601
▁bru	-11.601
单	-11.601
Work	-11.6011
383	-11.6011
▁Amsterdam	-11.6011
▁symbolic	-11.6011
▁Food	-11.6013
감	-11.6013
rait	-11.6013
크	-11.6014
프	-11.6016
▁relatives	-11.6018
▁collapsed	-11.6018
▁foe	-11.6018
失	-11.6018
▁perceptions	-11.6018
▁dare	-11.602
▁hadn	-11.6021
▁api	-11.6022
gM	-11.6022
build	-11.6023
▁Majesty	-11.6024
▁verification	-11.6024
father	-11.6026
OG	-11.6027
points	-11.6028
▁spectacle	-11.6028
▁organic	-11.6031
▁Rod	-11.6032
HG	-11.6032
▁inspect	-11.6033
▁regain	-11.6033
rang	-11.6035
▁나	-11.6036
291	-11.6036
▁riot	-11.6036
▁Alexandria	-11.6036
HL	-11.6037
179	-11.6038
▁Steel	-11.6039
JV	-11.6039
274	-11.6039
▁odds	-11.604
Italy	-11.6041
▁emissions	-11.6044
Ze	-11.6045
▁folk	-11.6046
MX	-11.6048
debug	-11.6049
▁Travel	-11.605
screen	-11.6052
hydra	-11.6056
▁1944,	-11.6056
Hh	-11.6057
▁socialist	-11.6057
enda	-11.6059
▁inferior	-11.6061
▁conducting	-11.6063
▁Mann	-11.6064
qm	-11.6065
another	-11.6065
wide	-11.6067
LF	-11.6068
imp	-11.6069
▁favored	-11.6069
▁31,	-11.6069
▁Kat	-11.607
▁volumes	-11.607
bas	-11.607
iendo	-11.6071
▁Heaven	-11.6072
▁Antony	-11.6072
▁fitness	-11.6072
▁liber	-11.6073
ska	-11.6076
▁tourist	-11.608
ipping	-11.6082
wM	-11.6082
▁pad	-11.6082
▁>=	-11.6082
axis	-11.6083
WT	-11.6084
DT	-11.6084
KY	-11.6084
ABAg	-11.6084
CF	-11.6086
▁pamphlet	-11.6087
▁injured	-11.6087
▁Ask	-11.6088
▁volunteer	-11.6089
说	-11.6089
260	-11.6092
▁mechanical	-11.6093
▁Award	-11.6093
▁Legal	-11.6093
Open	-11.6094
mmer	-11.6095
kZ	-11.6097
112	-11.6099
PJ	-11.61
进	-11.61
phor	-11.61
horn	-11.6101
▁commissioner	-11.6101
ERS	-11.6103
hab	-11.6105
uration	-11.6106
▁logs	-11.6106
▁Connecticut	-11.6107
566	-11.6108
▁justified	-11.6109
CW	-11.611
▁instantly	-11.611
▁accounting	-11.6112
種	-11.6112
▁dispatched	-11.6113
▁victories	-11.6113
grant	-11.6115
▁photos	-11.6115
▁compelled	-11.6115
▁tremendous	-11.6118
每个	-11.6118
▁punish	-11.6119
收	-11.6123
407	-11.6124
▁syntax	-11.6125
gall	-11.6126
▁productive	-11.6126
▁Confederacy	-11.6128
经	-11.6129
▁Build	-11.6131
customer	-11.6132
tling	-11.6133
▁Doctor	-11.6135
▁crews	-11.6136
장	-11.6136
398	-11.6138
384	-11.6139
▁bal	-11.614
结果	-11.614
▁spoil	-11.614
large	-11.6141
TZ	-11.6143
395	-11.6144
ми	-11.6145
▁fragments	-11.6146
gq	-11.6146
169	-11.6147
▁Arctic	-11.6147
▁Stanton	-11.6148
▁judges	-11.6152
(0)	-11.6152
qy	-11.6154
inner	-11.6154
▁위해	-11.6154
▁rhetoric	-11.6155
▁Visit	-11.6155
▁0.2	-11.6157
Oo	-11.6157
▁Atlanta	-11.6158
▁pod	-11.6158
▁sailing	-11.6159
▁dread	-11.6159
▁eds	-11.616
▁Cleopatra	-11.6161
▁1934	-11.6163
KK	-11.6167
▁Crockett	-11.6169
Union	-11.6172
▁Parker	-11.6172
▁ambitions	-11.6172
▁timber	-11.6172
356	-11.6173
▁Eventually	-11.6174
▁grenade	-11.6174
lift	-11.6174
wj	-11.6175
▁Reserve	-11.6175
Fq	-11.6177
440	-11.6178
230	-11.6179
▁belong	-11.6179
▁Role	-11.6179
▁pile	-11.618
TN	-11.618
▁vendor	-11.618
Stream	-11.6182
▁admired	-11.6182
▁CSR	-11.6183
▁Hawk	-11.6183
KI	-11.6183
▁requiring	-11.6185
開	-11.6186
▁LinkedIn	-11.6187
▁ashore	-11.6189
▁Gas	-11.619
▁MacArthur	-11.6191
▁sensor	-11.6191
iously	-11.6191
里	-11.6192
maps	-11.6193
▁28.	-11.6193
▁award	-11.6194
▁mortal	-11.6194
ло	-11.6194
▁masses	-11.6196
ZZ	-11.6197
▁Leader	-11.6199
▁disagree	-11.6199
assa	-11.62
▁sie	-11.62
Kq	-11.62
▁wartime	-11.62
469	-11.6202
park	-11.6203
bp	-11.6203
RD	-11.6205
▁deemed	-11.6208
▁deliberately	-11.6208
▁Hon	-11.6209
km	-11.6211
nell	-11.6211
▁tap	-11.6211
▁centers	-11.6212
NW	-11.6212
475	-11.6214
▁listener	-11.6215
Dq	-11.6215
2018	-11.6215
mination	-11.6215
▁Houston	-11.6215
▁Turn	-11.6215
AMBAAAAAAAAAA	-11.6216
qw	-11.6216
rf	-11.6217
▁encryption	-11.6217
▁Protocol	-11.6218
▁tiene	-11.6219
▁tensions	-11.6219
中国	-11.6219
▁1800	-11.622
▁disk	-11.622
▁eggs	-11.622
276	-11.622
":20,"	-11.622
Tk	-11.6221
watch	-11.6221
here	-11.6223
▁Judge	-11.6225
▁nobles	-11.6227
have	-11.6227
▁Hong	-11.6228
GG	-11.6229
▁passes	-11.6229
374	-11.6229
English	-11.6229
▁Jonathan	-11.6231
negro	-11.6231
基	-11.6232
▁sorrow	-11.6233
pJ	-11.6234
▁exclaimed	-11.6235
329	-11.6237
bec	-11.6237
▁disc	-11.6238
oom	-11.6239
▁Late	-11.624
▁premier	-11.6241
▁frustration	-11.6243
625	-11.6244
God	-11.6245
michael	-11.6246
496	-11.6248
dress	-11.6249
SX	-11.6251
▁infant	-11.6253
▁Smart	-11.6254
号	-11.6254
377	-11.6255
▁ger	-11.6255
▁Rhine	-11.6256
390	-11.6256
142	-11.6258
▁weaknesses	-11.6259
SJ	-11.6259
▁factories	-11.626
▁kick	-11.626
BW	-11.6261
▁27.	-11.6263
Rh	-11.6265
aro	-11.6265
▁atomic	-11.6265
▁disrupt	-11.6265
▁Baltimore	-11.6266
wD	-11.6266
▁Charleston	-11.6274
▁Training	-11.6275
lian	-11.6275
}"	-11.6275
EK	-11.6276
chart	-11.6277
▁presents	-11.6278
5+	-11.6279
▁pointing	-11.628
▁welcomed	-11.628
esteem	-11.6281
▁142	-11.6281
▁hunger	-11.6283
PX	-11.6283
▁untuk	-11.6284
312	-11.6285
然	-11.6285
▁Eric	-11.6289
▁Jar	-11.6289
rai	-11.6289
▁nodded	-11.629
▁Together	-11.629
setting	-11.6291
coast	-11.6291
▁sketch	-11.6293
▁Scots	-11.6293
▁fue	-11.6295
lap	-11.6296
▁tragedy	-11.6297
▁gross	-11.6298
▁visits	-11.6299
313	-11.63
▁Beyond	-11.6301
▁다양한	-11.6302
▁600	-11.6303
▁drunk	-11.6303
▁Louie	-11.6306
pho	-11.6306
▁invaded	-11.6307
align	-11.6308
GQ	-11.6309
观	-11.6309
onym	-11.6309
▁Sara	-11.631
▁AN	-11.6311
▁humble	-11.6312
▁bro	-11.6314
YA	-11.6314
▁psycho	-11.6314
plo	-11.6316
lou	-11.6316
▁philosophical	-11.6317
▁envoy	-11.6317
從	-11.6317
▁з	-11.6317
ships	-11.6317
▁tur	-11.6318
▁hence	-11.6318
ponent	-11.6318
Wu	-11.632
battle	-11.6321
447	-11.6322
▁dynamics	-11.6322
TK	-11.6323
Cell	-11.6323
▁Taft	-11.6324
dimensional	-11.6324
issa	-11.6329
▁colored	-11.633
Sq	-11.633
▁settlements	-11.6331
▁Cultural	-11.6332
507	-11.6334
▁metaphors	-11.6335
▁hiding	-11.6336
こと	-11.6336
▁Integration	-11.6338
▁defines	-11.6339
cional	-11.6339
9+	-11.634
▁tailored	-11.634
scope	-11.6341
터	-11.6342
115	-11.6342
▁willingness	-11.6343
▁Brooke	-11.6344
grand	-11.6344
▁Ship	-11.6345
inary	-11.6345
▁senators	-11.6345
▁selecting	-11.6345
▁talks	-11.6346
Group	-11.6346
▁steer	-11.6347
▁hire	-11.6348
aca	-11.6348
isa	-11.6349
▁scout	-11.6351
二	-11.6354
▁Stein	-11.6357
▁sounded	-11.6358
▁occasional	-11.6358
▁vols	-11.6359
▁사용하여	-11.636
▁coastal	-11.636
5-4	-11.636
▁indulge	-11.6361
模	-11.6362
448	-11.6362
ambi	-11.6363
Hk	-11.6364
▁Corn	-11.6364
397	-11.6365
▁intervene	-11.6366
dence	-11.6366
他们	-11.6366
367	-11.6366
fic	-11.6366
コ	-11.6367
story	-11.6367
▁guilt	-11.6368
▁scholar	-11.6368
▁¡	-11.6369
▁Movement	-11.637
▁savings	-11.637
▁Luther	-11.6372
▁Colorado	-11.6375
▁divorce	-11.6377
▁Operations	-11.6381
ه	-11.6385
▁collecting	-11.6385
▁Spirit	-11.6386
▁deadly	-11.6386
Qp	-11.6388
kJ	-11.6388
illustration	-11.6389
Ji	-11.6389
ECT	-11.6391
chron	-11.6393
▁Alliance	-11.6394
▁Token	-11.6396
▁pl	-11.6398
▁comrades	-11.6399
mad	-11.6402
OH	-11.6402
Nw	-11.6403
vier	-11.6404
项目	-11.6405
4-4	-11.6407
▁anybody	-11.6407
lumin	-11.6407
357	-11.6408
▁infl	-11.6408
▁equity	-11.6408
▁Survey	-11.6409
▁challenged	-11.641
▁shifted	-11.641
▁tele	-11.641
展	-11.6411
▁displays	-11.6412
	-11.6412
状	-11.6413
회	-11.6414
▁awful	-11.6415
XXX	-11.6416
India	-11.6416
▁Vietnamese	-11.6416
jan	-11.6417
Mq	-11.6418
TW	-11.6419
▁surgeon	-11.6422
=(	-11.6423
▁cake	-11.6423
▁requirement	-11.6424
▁brings	-11.6424
because	-11.6424
组	-11.6425
ulp	-11.6427
▁Roger	-11.6428
gZ	-11.6429
OA	-11.6429
ง	-11.6429
trained	-11.643
▁marching	-11.6432
▁scheduled	-11.6432
His	-11.6433
▁Augustus	-11.6433
▁seed	-11.6435
GW	-11.6435
▁Tokyo	-11.6435
▁constitute	-11.6435
▁wherever	-11.6435
QG	-11.6437
▁blanket	-11.6438
August	-11.644
计算	-11.644
节	-11.6441
▁Henri	-11.6442
▁1912	-11.6442
▁1955	-11.6442
▁Alan	-11.6443
ACT	-11.6444
▁Patrick	-11.6444
▁clever	-11.6444
▁structural	-11.6445
▁feels	-11.6446
▁wy	-11.6446
282	-11.6446
▁freed	-11.6447
▁posed	-11.6447
▁Success	-11.6447
▁Station	-11.6448
▁bombers	-11.6448
▁founding	-11.645
▁norms	-11.6451
▁Summary	-11.6454
plica	-11.6454
Yu	-11.6457
import	-11.6457
▁для	-11.6458
oire	-11.6458
▁XVI	-11.6459
chel	-11.6459
mation	-11.646
JT	-11.646
▁municipal	-11.646
▁philosopher	-11.6461
▁transparent	-11.6462
▁Communists	-11.6463
▁Cole	-11.6464
Royal	-11.6464
405	-11.6464
▁beloved	-11.6464
Url	-11.6465
▁jungle	-11.6465
▁satellite	-11.6466
▁doc	-11.6467
▁polite	-11.6467
cx	-11.6469
▁claiming	-11.6469
Buffer	-11.6471
▁él	-11.6473
TG	-11.6475
▁reinforced	-11.6476
▁avoiding	-11.6476
▁Dia	-11.6476
121	-11.6476
▁meditation	-11.6477
135	-11.6477
▁더	-11.6478
template	-11.648
Yk	-11.648
▁controversy	-11.648
Price	-11.6483
▁Twitter	-11.6485
▁pardon	-11.6485
Sr	-11.6485
Um	-11.6487
▁plantation	-11.6491
▁Gregory	-11.6491
▁1913	-11.6492
▁pause	-11.6492
brother	-11.6493
ZS	-11.6493
hai	-11.6495
428	-11.6496
hash	-11.6496
Qh	-11.6496
▁cop	-11.6497
ZU	-11.6498
▁fig	-11.6498
▁fruits	-11.6499
Ml	-11.6502
uma	-11.6502
jZ	-11.6503
report	-11.6503
長	-11.6503
▁Cast	-11.6505
cular	-11.6505
Vt	-11.6506
Oz	-11.6506
▁Hello	-11.6506
gene	-11.651
446	-11.651
▁initialize	-11.6511
Book	-11.6511
完成	-11.6512
▁consistency	-11.6512
pV	-11.6512
建议	-11.6513
▁-1	-11.6514
▁bullets	-11.6515
▁Upper	-11.6516
organization	-11.6518
▁Past	-11.6518
▁organizing	-11.6518
▁Heart	-11.6519
작	-11.6519
470	-11.6519
388	-11.6521
▁eternal	-11.6521
▁extends	-11.6522
▁Letter	-11.6523
UO	-11.6524
bH	-11.6525
▁boxes	-11.6525
▁explains	-11.6527
ager	-11.6527
OQ	-11.6529
LZ	-11.653
▁1906	-11.653
mr	-11.6531
▁Otto	-11.6531
element	-11.6532
402	-11.6532
▁destroyers	-11.6533
та	-11.6536
CG	-11.6536
Oq	-11.6536
▁Harold	-11.6537
▁Archives	-11.6539
2000	-11.6539
folder	-11.654
▁Film	-11.654
zb	-11.6541
▁procession	-11.6541
应用	-11.6542
▁Tru	-11.6544
▁plastic	-11.6544
▁PO	-11.6544
EO	-11.6545
▁renewable	-11.6547
▁circles	-11.655
▁Bird	-11.6551
▁partnerships	-11.6551
bee	-11.6551
▁Iron	-11.6553
▁sho	-11.6553
Kw	-11.6553
-----------	-11.6554
355	-11.6554
corn	-11.6555
▁ki	-11.6556
▁Pal	-11.6556
▁위	-11.6558
-16	-11.6559
YR	-11.6559
Pri	-11.656
だ	-11.6561
414	-11.6563
impl	-11.6563
其中	-11.6565
▁vie	-11.6566
▁Link	-11.6567
▁Qua	-11.6568
Ng	-11.6568
▁tie	-11.6568
mill	-11.6569
economic	-11.6569
▁esto	-11.6569
▁Sicily	-11.657
default	-11.6571
▁monthly	-11.6574
▁publish	-11.6575
sche	-11.6576
▁estimates	-11.6577
iver	-11.6577
▁recipient	-11.6579
Valid	-11.6583
▁empresa	-11.6583
]);	-11.6585
413	-11.6587
ál	-11.6589
▁été	-11.6589
generate	-11.659
Sal	-11.6591
▁forming	-11.6593
uw	-11.6595
▁totally	-11.6595
ов	-11.6596
▁surrendered	-11.6598
▁Leon	-11.6598
▁twist	-11.6599
▁highway	-11.6599
208	-11.6603
▁backend	-11.6605
▁Wright	-11.6606
"}]}]}]},{"	-11.6608
▁attraction	-11.6609
598	-11.661
同时	-11.6612
WZ	-11.6612
▁defended	-11.6613
▁Humphrey	-11.6615
▁상	-11.6615
性能	-11.6615
ume	-11.6616
modern	-11.6617
endo	-11.6618
kH	-11.6619
▁preprocess	-11.6619
Edward	-11.6619
EAR	-11.662
Wx	-11.6621
▁glorious	-11.6622
rou	-11.6622
▁elegant	-11.6623
track	-11.6623
描述	-11.6624
▁underground	-11.6625
XC	-11.6626
▁yo	-11.6627
JZ	-11.6627
▁Michigan	-11.6627
▁nationalism	-11.6628
▁indication	-11.6628
wt	-11.6631
ò	-11.6632
102	-11.6637
或者	-11.6639
️	-11.6639
▁Carthaginian	-11.664
DK	-11.664
oj	-11.6641
rW	-11.6641
▁editorial	-11.6642
▁suited	-11.6642
▁operated	-11.6642
▁HA	-11.6643
▁posted	-11.6643
network	-11.6644
design	-11.6644
要求	-11.6645
118	-11.6646
▁physics	-11.6646
zzo	-11.6647
▁Kra	-11.6647
▁soup	-11.6648
▁bargain	-11.6649
147	-11.665
▁heap	-11.6651
▁dashboard	-11.6651
▁palm	-11.6652
▁├──	-11.6652
▁backed	-11.6652
▁Palmer	-11.6653
england	-11.6653
439	-11.6653
▁Urban	-11.6654
れ	-11.6655
cop	-11.6655
▁lucky	-11.6655
6-4	-11.6655
▁hungry	-11.6656
▁attributed	-11.6656
実	-11.6657
▁absurd	-11.6658
eastern	-11.6659
▁dealt	-11.6659
▁Winter	-11.6663
ZF	-11.6663
route	-11.6664
366	-11.6665
▁Stewart	-11.6665
▁lodge	-11.6665
▁preventing	-11.6666
▁sufficiently	-11.6668
written	-11.6669
588	-11.667
qk	-11.667
Change	-11.667
▁politically	-11.6671
▁connecting	-11.6673
Bv	-11.6674
▁것이	-11.6676
▁DAN	-11.6676
XR	-11.6677
▁steadily	-11.6678
System	-11.6679
transaction	-11.668
nl	-11.668
▁Pakistani	-11.6681
▁readily	-11.6682
▁Gla	-11.6683
Kz	-11.6684
wei	-11.6685
▁Vice	-11.6685
enia	-11.6686
▁Mello	-11.6686
▁departments	-11.6686
▁impacts	-11.6686
▁gla	-11.6686
xv	-11.6687
AAgE	-11.6688
berry	-11.6688
▁tactical	-11.6689
middle	-11.669
RW	-11.6691
411	-11.6691
▁accomplishment	-11.6692
▁Reform	-11.6693
▁relied	-11.6693
▁Children	-11.6693
▁<=	-11.6694
▁failures	-11.6694
▁Kha	-11.6695
	-11.6695
ISBN	-11.6696
관	-11.6697
▁Livingston	-11.6697
▁Path	-11.6698
hur	-11.67
TJ	-11.6702
▁Pin	-11.6703
mol	-11.6704
Long	-11.6705
▁Battalion	-11.6706
▁floating	-11.6708
▁Compare	-11.6709
▁이를	-11.6709
Yy	-11.671
vt	-11.671
▁consulting	-11.6711
▁Hope	-11.6712
750	-11.6712
利用	-11.6712
▁Darwin	-11.6713
▁mechanics	-11.6713
▁Marx	-11.6713
▁substitute	-11.6713
▁Almost	-11.6713
▁impulse	-11.6714
▁sup	-11.6715
▁receipt	-11.6715
MW	-11.6716
JY	-11.6716
Ci	-11.6716
▁animation	-11.6718
▁od	-11.6719
▁crystal	-11.6719
220	-11.672
▁remark	-11.672
▁nephew	-11.672
Kk	-11.672
Indian	-11.6721
▁Need	-11.6721
命令	-11.6721
▁farms	-11.6722
▁Spaniards	-11.6723
▁laborers	-11.6723
etti	-11.6724
添加	-11.6725
▁indigenous	-11.6726
luc	-11.6727
▁utterly	-11.673
qV	-11.673
▁worldwide	-11.6731
▁arr	-11.6731
▁Minor	-11.6731
▁arc	-11.6731
▁strings	-11.6732
[...]
